<unk>	0
<s>	0
</s>	0
▁t	-0
▁a	-1
he	-2
in	-3
▁the	-4
er	-5
on	-6
▁s	-7
re	-8
▁o	-9
▁c	-10
is	-11
an	-12
at	-13
▁w	-14
en	-15
ed	-16
▁b	-17
or	-18
▁p	-19
it	-20
▁f	-21
▁in	-22
▁of	-23
▁an	-24
al	-25
ar	-26
▁m	-27
es	-28
ic	-29
▁and	-30
ing	-31
▁d	-32
▁h	-33
as	-34
ro	-35
ion	-36
▁l	-37
▁to	-38
▁n	-39
ent	-40
ou	-41
il	-42
el	-43
▁re	-44
▁g	-45
om	-46
st	-47
▁th	-48
ol	-49
▁is	-50
am	-51
▁e	-52
un	-53
ct	-54
le	-55
▁1	-56
ly	-57
ra	-58
us	-59
▁on	-60
im	-61
▁st	-62
▁for	-63
▁as	-64
ur	-65
iv	-66
ation	-67
ch	-68
ist	-69
id	-70
▁be	-71
ce	-72
ig	-73
ad	-74
ut	-75
ers	-76
▁was	-77
▁he	-78
ot	-79
▁(	-80
ir	-81
et	-82
ow	-83
▁j	-84
▁by	-85
em	-86
▁wh	-87
▁v	-88
▁con	-89
▁19	-90
▁2	-91
▁al	-92
ul	-93
▁k	-94
▁that	-95
ith	-96
ter	-97
▁ch	-98
ian	-99
ay	-100
▁with	-101
os	-102
ver	-103
▁un	-104
▁com	-105
▁it	-106
▁pro	-107
and	-108
▁de	-109
▁r	-110
est	-111
th	-112
her	-113
▁su	-114
▁at	-115
▁20	-116
res	-117
rom	-118
ac	-119
ag	-120
▁"	-121
▁se	-122
op	-123
um	-124
▁his	-125
av	-126
ri	-127
▁or	-128
ain	-129
▁mo	-130
oc	-131
ew	-132
ity	-133
ber	-134
▁from	-135
ort	-136
ill	-137
if	-138
pp	-139
ich	-140
oun	-141
ate	-142
ies	-143
art	-144
ab	-145
ud	-146
ous	-147
▁ex	-148
▁le	-149
ia	-150
ess	-151
ial	-152
od	-153
igh	-154
ive	-155
rit	-156
ect	-157
qu	-158
ish	-159
▁y	-160
ical	-161
ated	-162
end	-163
ard	-164
▁ar	-165
▁sh	-166
ak	-167
▁200	-168
mer	-169
ld	-170
up	-171
ary	-172
ment	-173
red	-174
all	-175
▁which	-176
▁has	-177
ant	-178
▁sp	-179
ub	-180
ear	-181
▁ro	-182
ap	-183
▁cl	-184
der	-185
ug	-186
▁are	-187
cc	-188
ell	-189
▁af	-190
▁pl	-191
og	-192
▁wor	-193
ast	-194
▁us	-195
▁not	-196
ong	-197
ge	-198
ame	-199
iz	-200
se	-201
ie	-202
ican	-203
cl	-204
▁cont	-205
ip	-206
ave	-207
ight	-208
▁man	-209
ov	-210
ust	-211
ther	-212
pt	-213
own	-214
▁act	-215
ere	-216
ine	-217
▁who	-218
our	-219
ome	-220
▁en	-221
so	-222
▁ad	-223
ack	-224
▁pol	-225
▁sc	-226
orn	-227
▁ab	-228
▁were	-229
▁part	-230
▁this	-231
▁mar	-232
▁its	-233
ions	-234
ren	-235
▁new	-236
ence	-237
▁rep	-238
▁res	-239
ass	-240
per	-241
ok	-242
▁have	-243
man	-244
▁ser	-245
▁ra	-246
),	-247
ubl	-248
ress	-249
▁comp	-250
▁her	-251
ict	-252
ire	-253
▁amer	-254
ely	-255
▁after	-256
▁also	-257
ign	-258
▁their	-259
ide	-260
ore	-261
ure	-262
▁whe	-263
age	-264
▁ind	-265
ates	-266
ations	-267
▁been	-268
▁go	-269
ual	-270
▁,	-271
▁one	-272
▁kn	-273
▁comm	-274
▁ag	-275
ism	-276
ry	-277
ran	-278
ue	-279
▁int	-280
▁had	-281
ib	-282
ult	-283
uc	-284
ord	-285
ice	-286
ost	-287
▁other	-288
act	-289
ited	-290
▁dis	-291
▁ne	-292
ory	-293
▁att	-294
▁american	-295
ition	-296
▁ev	-297
▁all	-298
clud	-299
▁inter	-300
▁bo	-301
ath	-302
out	-303
▁te	-304
▁rec	-305
ious	-306
ational	-307
▁im	-308
ff	-309
▁but	-310
▁cons	-311
ime	-312
ount	-313
▁fir	-314
▁gro	-315
▁per	-316
▁pr	-317
▁col	-318
▁.	-319
und	-320
ose	-321
uring	-322
ite	-323
amp	-324
▁des	-325
▁app	-326
ik	-327
ree	-328
▁some	-329
gh	-330
ents	-331
▁war	-332
aw	-333
▁el	-334
▁includ	-335
▁tra	-336
▁first	-337
▁known	-338
▁fil	-339
▁199	-340
hed	-341
▁201	-342
con	-343
▁she	-344
▁ter	-345
▁tw	-346
land	-347
▁off	-348
▁bec	-349
ec	-350
ular	-351
ang	-352
▁year	-353
▁co	-354
▁most	-355
ember	-356
▁pres	-357
ugh	-358
for	-359
00	-360
ater	-361
▁acc	-362
▁can	-363
▁over	-364
ident	-365
▁sch	-366
▁play	-367
are	-368
▁bl	-369
▁they	-370
ne	-371
ould	-372
ough	-373
▁during	-374
▁pop	-375
▁pre	-376
ens	-377
▁pe	-378
ile	-379
▁film	-380
ces	-381
ound	-382
▁fe	-383
▁publ	-384
▁rel	-385
gan	-386
pl	-387
ased	-388
▁out	-389
ind	-390
able	-391
▁am	-392
ors	-393
▁cent	-394
ph	-395
ied	-396
ally	-397
▁many	-398
fer	-399
ach	-400
ics	-401
▁vi	-402
ev	-403
▁states	-404
reat	-405
▁united	-406
▁such	-407
wn	-408
ru	-409
▁jo	-410
▁sy	-411
▁mus	-412
les	-413
▁world	-414
▁reg	-415
▁i	-416
▁char	-417
▁gen	-418
ks	-419
▁we	-420
aim	-421
▁me	-422
ft	-423
▁ph	-424
▁group	-425
rist	-426
we	-427
▁qu	-428
▁again	-429
▁u	-430
▁198	-431
▁3	-432
ative	-433
born	-434
vern	-435
ts	-436
ace	-437
▁polit	-438
).	-439
olog	-440
▁comed	-441
ah	-442
▁eng	-443
ild	-444
old	-445
ision	-446
▁two	-447
▁ass	-448
▁supp	-449
rib	-450
▁so	-451
ists	-452
one	-453
▁how	-454
▁up	-455
▁govern	-456
ance	-457
▁18	-458
ade	-459
ral	-460
▁when	-461
ward	-462
▁197	-463
oll	-464
▁ear	-465
▁under	-466
ail	-467
▁fam	-468
▁bro	-469
az	-470
▁lead	-471
ivers	-472
ings	-473
ool	-474
▁crit	-475
ten	-476
ved	-477
ve	-478
te	-479
▁more	-480
ince	-481
vel	-482
ase	-483
▁may	-484
▁em	-485
the	-486
▁bel	-487
▁par	-488
▁count	-489
▁car	-490
▁inv	-491
▁hist	-492
ement	-493
▁against	-494
▁bet	-495
▁christ	-496
▁ed	-497
ans	-498
▁contro	-499
▁claim	-500
ood	-501
▁brit	-502
aus	-503
hip	-504
pe	-505
▁only	-506
ram	-507
ating	-508
ction	-509
▁show	-510
ep	-511
ick	-512
ck	-513
▁med	-514
▁work	-515
vers	-516
▁def	-517
▁aut	-518
du	-519
ons	-520
inal	-521
▁inc	-522
ced	-523
▁min	-524
ution	-525
iss	-526
▁sub	-527
iet	-528
▁writ	-529
▁years	-530
ily	-531
▁there	-532
int	-533
▁fl	-534
▁do	-535
ered	-536
▁state	-537
▁into	-538
▁soc	-539
▁imp	-540
ning	-541
▁ma	-542
▁art	-543
▁peop	-544
▁well	-545
19	-546
▁196	-547
oth	-548
▁time	-549
▁sou	-550
▁about	-551
▁government	-552
▁ac	-553
▁national	-554
▁school	-555
ians	-556
▁rem	-557
▁used	-558
▁series	-559
io	-560
▁-	-561
ished	-562
▁gu	-563
ific	-564
▁will	-565
▁sing	-566
rael	-567
ful	-568
▁people	-569
▁univers	-570
▁nor	-571
▁found	-572
ject	-573
▁organ	-574
▁mov	-575
▁being	-576
ms	-577
▁z	-578
▁book	-579
ilit	-580
▁him	-581
▁ap	-582
▁stud	-583
med	-584
ake	-585
ever	-586
▁including	-587
▁loc	-588
tern	-589
▁br	-590
▁pers	-591
▁support	-592
▁mon	-593
ollow	-594
▁mem	-595
▁than	-596
▁thro	-597
▁israel	-598
ife	-599
▁political	-600
▁since	-601
▁po	-602
fl	-603
ton	-604
ient	-605
son	-606
ized	-607
▁call	-608
▁num	-609
▁while	-610
▁british	-611
▁however	-612
▁dem	-613
▁follow	-614
▁194	-615
▁tel	-616
▁city	-617
▁would	-618
▁gener	-619
▁public	-620
ork	-621
ween	-622
min	-623
ond	-624
ob	-625
uss	-626
▁leg	-627
▁between	-628
ert	-629
▁lar	-630
▁made	-631
",	-632
▁ent	-633
▁death	-634
▁through	-635
▁high	-636
▁commun	-637
▁4	-638
ese	-639
cy	-640
▁pos	-641
▁inst	-642
ury	-643
▁right	-644
▁rev	-645
sp	-646
▁exp	-647
▁where	-648
▁popular	-649
▁ob	-650
elf	-651
hn	-652
ien	-653
▁law	-654
▁dr	-655
▁president	-656
▁hum	-657
▁sm	-658
▁intern	-659
ures	-660
led	-661
che	-662
6,	-663
ted	-664
▁nov	-665
ke	-666
ned	-667
ys	-668
urch	-669
lish	-670
▁rele	-671
ived	-672
▁cr	-673
▁party	-674
▁5	-675
▁later	-676
ti	-677
▁cre	-678
duc	-679
▁ir	-680
▁sever	-681
▁oper	-682
▁camp	-683
▁prov	-684
als	-685
▁no	-686
ities	-687
▁elect	-688
▁actress	-689
ise	-690
ix	-691
ina	-692
▁day	-693
0,	-694
iber	-695
▁main	-696
▁ger	-697
▁kill	-698
▁195	-699
▁end	-700
imes	-701
ike	-702
ather	-703
fore	-704
▁cap	-705
air	-706
▁republ	-707
▁str	-708
▁view	-709
cept	-710
ract	-711
ty	-712
leg	-713
bers	-714
▁both	-715
▁dist	-716
1,	-717
ron	-718
▁telev	-719
uro	-720
ible	-721
rent	-722
irect	-723
▁sa	-724
▁tran	-725
ica	-726
erv	-727
ery	-728
▁bus	-729
▁belie	-730
att	-731
▁best	-732
▁john	-733
ically	-734
▁former	-735
▁music	-736
▁auth	-737
▁prog	-738
▁television	-739
7,	-740
▁orig	-741
▁these	-742
ately	-743
▁arm	-744
co	-745
dition	-746
▁alb	-747
▁attack	-748
▁bu	-749
ional	-750
▁use	-751
▁met	-752
▁cur	-753
ash	-754
▁ext	-755
▁great	-756
ale	-757
".	-758
round	-759
▁south	-760
▁university	-761
▁feat	-762
ization	-763
▁sur	-764
oy	-765
▁church	-766
▁est	-767
ccess	-768
▁fran	-769
▁sl	-770
▁sim	-771
▁german	-772
▁occ	-773
▁opp	-774
ause	-775
▁charact	-776
▁prot	-777
▁them	-778
▁several	-779
▁name	-780
▁milit	-781
▁record	-782
▁bar	-783
▁har	-784
▁direct	-785
▁op	-786
cond	-787
▁controvers	-788
su	-789
▁tr	-790
▁song	-791
▁critic	-792
▁mu	-793
▁three	-794
other	-795
ially	-796
5,	-797
ier	-798
▁ge	-799
iel	-800
stem	-801
▁game	-802
▁second	-803
▁liber	-804
▁fo	-805
▁colle	-806
jor	-807
ually	-808
▁before	-809
ower	-810
▁child	-811
▁sec	-812
▁success	-813
▁jan	-814
ins	-815
▁dec	-816
form	-817
▁ju	-818
▁system	-819
une	-820
▁unt	-821
ror	-822
▁var	-823
ared	-824
▁euro	-825
▁set	-826
▁desc	-827
▁form	-828
▁number	-829
velop	-830
▁adv	-831
ives	-832
way	-833
▁fin	-834
▁own	-835
▁offic	-836
ames	-837
▁develop	-838
ss	-839
ology	-840
▁refer	-841
ason	-842
▁serv	-843
▁members	-844
▁award	-845
▁consid	-846
ley	-847
."	-848
▁resp	-849
▁'	-850
▁dep	-851
▁english	-852
though	-853
▁band	-854
osed	-855
▁major	-856
▁north	-857
▁long	-858
3,	-859
com	-860
▁became	-861
▁report	-862
▁author	-863
▁eff	-864
▁often	-865
▁gl	-866
2,	-867
▁cor	-868
▁aust	-869
▁arg	-870
ently	-871
▁spec	-872
▁ret	-873
rat	-874
8,	-875
ril	-876
▁king	-877
▁person	-878
▁pa	-879
▁air	-880
▁tur	-881
▁ref	-882
▁called	-883
▁trans	-884
ret	-885
ouse	-886
iam	-887
▁early	-888
▁christian	-889
▁until	-890
aking	-891
4,	-892
ank	-893
▁jew	-894
▁pass	-895
▁prop	-896
▁histor	-897
ptember	-898
ham	-899
ural	-900
ger	-901
000	-902
▁based	-903
▁ann	-904
ised	-905
▁star	-906
▁relig	-907
▁any	-908
its	-909
▁four	-910
▁due	-911
▁social	-912
ai	-913
▁character	-914
▁pal	-915
▁sign	-916
▁following	-917
▁gra	-918
▁gre	-919
▁europe	-920
de	-921
▁album	-922
inu	-923
▁mill	-924
▁life	-925
iew	-926
▁(19	-927
▁program	-928
▁la	-929
ugust	-930
ner	-931
▁september	-932
sh	-933
▁port	-934
▁international	-935
▁sw	-936
mber	-937
uary	-938
ience	-939
▁pat	-940
ured	-941
ained	-942
▁july	-943
day	-944
▁wom	-945
▁team	-946
bs	-947
cember	-948
ark	-949
ll	-950
ute	-951
▁march	-952
▁history	-953
▁although	-954
▁6	-955
▁gr	-956
▁because	-957
▁human	-958
ock	-959
▁russ	-960
▁comedian	-961
▁anti	-962
▁just	-963
ober	-964
▁win	-965
enn	-966
▁prof	-967
ting	-968
▁mark	-969
ital	-970
▁cult	-971
▁compan	-972
▁april	-973
▁east	-974
▁const	-975
▁fre	-976
ctober	-977
cer	-978
▁cro	-979
hen	-980
▁then	-981
▁august	-982
▁mat	-983
▁non	-984
ann	-985
olution	-986
▁produc	-987
lam	-988
9,	-989
▁civ	-990
▁activ	-991
▁rom	-992
▁west	-993
▁design	-994
ants	-995
▁family	-996
▁super	-997
▁terror	-998
▁result	-999
▁back	-1000
▁current	-1001
▁cal	-1002
▁though	-1003
▁lit	-1004
▁york	-1005
ull	-1006
▁rece	-1007
ball	-1008
▁december	-1009
▁det	-1010
▁civil	-1011
gest	-1012
▁even	-1013
▁conserv	-1014
▁mass	-1015
▁term	-1016
▁january	-1017
▁partic	-1018
▁century	-1019
▁er	-1020
▁june	-1021
ention	-1022
▁mur	-1023
▁killed	-1024
get	-1025
ange	-1026
▁mag	-1027
▁hol	-1028
▁rad	-1029
conom	-1030
▁among	-1031
ility	-1032
ey	-1033
ogra	-1034
omin	-1035
▁cour	-1036
▁movement	-1037
▁won	-1038
ris	-1039
▁left	-1040
ator	-1041
▁austral	-1042
▁comedien	-1043
▁famous	-1044
▁october	-1045
▁mid	-1046
▁mod	-1047
ines	-1048
ield	-1049
▁av	-1050
▁ep	-1051
▁econom	-1052
▁same	-1053
▁alleg	-1054
ined	-1055
ired	-1056
xual	-1057
▁now	-1058
▁nat	-1059
▁dif	-1060
▁comedienne	-1061
▁led	-1062
▁ever	-1063
▁head	-1064
▁role	-1065
ink	-1066
uted	-1067
ring	-1068
▁common	-1069
▁general	-1070
ble	-1071
amed	-1072
▁old	-1073
▁geor	-1074
ene	-1075
angu	-1076
▁care	-1077
▁home	-1078
▁mor	-1079
ister	-1080
ages	-1081
▁vers	-1082
▁run	-1083
▁193	-1084
▁media	-1085
▁som	-1086
iety	-1087
▁che	-1088
▁open	-1089
que	-1090
▁phil	-1091
▁moder	-1092
rem	-1093
ration	-1094
▁expl	-1095
▁released	-1096
duct	-1097
epend	-1098
▁scient	-1099
▁power	-1100
inc	-1101
▁islam	-1102
yn	-1103
▁es	-1104
▁tit	-1105
bru	-1106
ried	-1107
empt	-1108
ument	-1109
▁stat	-1110
▁sen	-1111
▁vict	-1112
▁country	-1113
▁military	-1114
bruary	-1115
▁describ	-1116
▁democ	-1117
▁7	-1118
▁those	-1119
▁prom	-1120
▁member	-1121
▁infl	-1122
ains	-1123
▁like	-1124
bert	-1125
▁born	-1126
▁perfor	-1127
aced	-1128
▁god	-1129
aving	-1130
▁class	-1131
app	-1132
▁land	-1133
▁polic	-1134
els	-1135
iving	-1136
chn	-1137
▁house	-1138
aign	-1139
ling	-1140
▁singer	-1141
▁what	-1142
ged	-1143
▁del	-1144
▁campaign	-1145
▁appear	-1146
▁val	-1147
▁hel	-1148
by	-1149
▁spe	-1150
▁rest	-1151
▁army	-1152
▁deb	-1153
▁independ	-1154
▁rock	-1155
bc	-1156
▁fact	-1157
▁canad	-1158
ality	-1159
ulation	-1160
▁organization	-1161
ected	-1162
▁news	-1163
oci	-1164
▁langu	-1165
▁november	-1166
▁uk	-1167
▁coun	-1168
▁town	-1169
por	-1170
▁did	-1171
ries	-1172
bo	-1173
▁conf	-1174
xt	-1175
▁published	-1176
sy	-1177
yp	-1178
▁union	-1179
iness	-1180
▁played	-1181
▁february	-1182
iver	-1183
▁disc	-1184
▁far	-1185
▁sk	-1186
▁invol	-1187
▁black	-1188
▁9	-1189
▁my	-1190
▁foot	-1191
▁associ	-1192
▁post	-1193
rench	-1194
apan	-1195
▁bre	-1196
▁dav	-1197
▁pet	-1198
▁children	-1199
▁youn	-1200
▁control	-1201
▁groups	-1202
ness	-1203
ray	-1204
▁controversial	-1205
▁net	-1206
cess	-1207
▁stand	-1208
gy	-1209
▁lab	-1210
▁rights	-1211
▁prev	-1212
▁down	-1213
ars	-1214
rop	-1215
▁host	-1216
▁pri	-1217
▁much	-1218
▁ira	-1219
▁x	-1220
▁profess	-1221
▁area	-1222
▁near	-1223
alth	-1224
▁order	-1225
olic	-1226
0.	-1227
sc	-1228
ony	-1229
▁influ	-1230
ably	-1231
gin	-1232
▁bra	-1233
▁forces	-1234
ax	-1235
▁aff	-1236
ments	-1237
arian	-1238
▁estab	-1239
▁large	-1240
▁unf	-1241
▁accord	-1242
▁modern	-1243
▁8	-1244
eder	-1245
ended	-1246
▁company	-1247
ior	-1248
▁comple	-1249
▁bas	-1250
▁attempt	-1251
▁techn	-1252
ott	-1253
aut	-1254
▁vot	-1255
▁club	-1256
ler	-1257
alk	-1258
▁times	-1259
ices	-1260
▁japan	-1261
▁viol	-1262
▁white	-1263
▁den	-1264
▁way	-1265
▁plan	-1266
▁red	-1267
▁2006	-1268
▁small	-1269
▁192	-1270
ories	-1271
▁pract	-1272
▁ide	-1273
▁died	-1274
▁said	-1275
▁short	-1276
cial	-1277
▁palest	-1278
▁final	-1279
▁another	-1280
▁claims	-1281
▁season	-1282
1.	-1283
4.	-1284
▁ii	-1285
▁last	-1286
▁conservative	-1287
▁miss	-1288
▁inf	-1289
urn	-1290
arch	-1291
▁17	-1292
▁along	-1293
▁around	-1294
▁sit	-1295
▁french	-1296
▁exper	-1297
▁republic	-1298
▁began	-1299
ided	-1300
▁men	-1301
▁within	-1302
▁late	-1303
▁free	-1304
▁democrat	-1305
▁afr	-1306
▁ara	-1307
▁start	-1308
▁ren	-1309
mon	-1310
ode	-1311
▁fore	-1312
▁very	-1313
▁present	-1314
▁batt	-1315
hing	-1316
ides	-1317
ek	-1318
hes	-1319
▁beh	-1320
▁israeli	-1321
oss	-1322
▁community	-1323
ively	-1324
used	-1325
ortun	-1326
ird	-1327
ama	-1328
▁considered	-1329
5.	-1330
ove	-1331
▁ins	-1332
▁examp	-1333
▁event	-1334
▁(2	-1335
▁vide	-1336
estern	-1337
resent	-1338
▁women	-1339
▁tradition	-1340
ves	-1341
ague	-1342
▁differ	-1343
▁protest	-1344
▁business	-1345
▁bill	-1346
▁build	-1347
▁lo	-1348
istan	-1349
dom	-1350
▁according	-1351
▁continu	-1352
▁nort	-1353
▁resear	-1354
▁fict	-1355
▁hom	-1356
ograph	-1357
▁republican	-1358
ements	-1359
▁could	-1360
▁jud	-1361
▁cath	-1362
2.	-1363
augh	-1364
ertain	-1365
▁claimed	-1366
rict	-1367
▁ang	-1368
▁leader	-1369
▁various	-1370
▁sal	-1371
7.	-1372
▁actor	-1373
ric	-1374
▁(1	-1375
▁college	-1376
▁include	-1377
▁located	-1378
wing	-1379
▁received	-1380
alist	-1381
▁16	-1382
▁10	-1383
tle	-1384
eg	-1385
▁million	-1386
oph	-1387
▁hit	-1388
▁effect	-1389
ster	-1390
▁dra	-1391
▁place	-1392
▁top	-1393
▁desp	-1394
▁lat	-1395
▁age	-1396
▁murder	-1397
▁written	-1398
line	-1399
riend	-1400
ming	-1401
▁original	-1402
eb	-1403
inian	-1404
▁mich	-1405
▁pur	-1406
▁poss	-1407
▁instit	-1408
▁cover	-1409
▁america	-1410
▁jour	-1411
lim	-1412
▁young	-1413
▁educ	-1414
▁religious	-1415
ets	-1416
▁sol	-1417
▁jes	-1418
ael	-1419
ium	-1420
▁broad	-1421
▁still	-1422
▁191	-1423
ple	-1424
▁appe	-1425
to	-1426
▁vill	-1427
ody	-1428
ored	-1429
▁son	-1430
af	-1431
8.	-1432
▁artic	-1433
iven	-1434
orts	-1435
▁island	-1436
3.	-1437
▁somet	-1438
▁if	-1439
▁div	-1440
▁anim	-1441
ung	-1442
aster	-1443
▁origin	-1444
▁hand	-1445
▁having	-1446
▁particular	-1447
▁strong	-1448
▁gree	-1449
▁incre	-1450
▁15	-1451
▁indian	-1452
idence	-1453
▁you	-1454
▁prim	-1455
▁story	-1456
ified	-1457
▁conv	-1458
▁occup	-1459
▁despite	-1460
rew	-1461
ison	-1462
ondon	-1463
▁david	-1464
▁others	-1465
ows	-1466
read	-1467
▁minister	-1468
▁doc	-1469
▁local	-1470
oviet	-1471
ald	-1472
ira	-1473
▁center	-1474
▁regard	-1475
itions	-1476
▁london	-1477
▁league	-1478
uck	-1479
less	-1480
▁george	-1481
▁six	-1482
▁vis	-1483
aken	-1484
▁named	-1485
cent	-1486
▁dan	-1487
omb	-1488
ilar	-1489
par	-1490
▁science	-1491
▁alleged	-1492
ney	-1493
▁don	-1494
▁father	-1495
▁police	-1496
▁official	-1497
▁tro	-1498
minist	-1499
ruct	-1500
▁european	-1501
▁represent	-1502
ogn	-1503
ues	-1504
hern	-1505
▁jewish	-1506
utral	-1507
▁say	-1508
▁lost	-1509
▁capt	-1510
▁iraq	-1511
▁career	-1512
▁western	-1513
▁rich	-1514
▁jesus	-1515
▁vir	-1516
▁soviet	-1517
▁football	-1518
▁unfortun	-1519
▁cle	-1520
▁william	-1521
ival	-1522
▁stre	-1523
▁bi	-1524
amer	-1525
gress	-1526
▁population	-1527
9.	-1528
▁successful	-1529
ivid	-1530
▁kingdom	-1531
yle	-1532
▁ill	-1533
▁chin	-1534
▁appro	-1535
▁champ	-1536
ering	-1537
▁park	-1538
▁stri	-1539
▁radio	-1540
▁russian	-1541
▁epis	-1542
self	-1543
▁came	-1544
ize	-1545
▁acad	-1546
▁language	-1547
▁manag	-1548
▁video	-1549
▁arch	-1550
▁sold	-1551
▁word	-1552
▁leading	-1553
▁good	-1554
▁never	-1555
▁add	-1556
▁dev	-1557
▁took	-1558
▁issu	-1559
▁china	-1560
▁become	-1561
▁writer	-1562
▁ke	-1563
▁india	-1564
▁journ	-1565
▁created	-1566
▁administ	-1567
▁bbc	-1568
▁held	-1569
▁england	-1570
ban	-1571
rest	-1572
▁northern	-1573
▁roman	-1574
▁attacks	-1575
work	-1576
▁individ	-1577
wh	-1578
▁decl	-1579
asc	-1580
▁court	-1581
ense	-1582
▁caus	-1583
▁sour	-1584
▁relations	-1585
▁views	-1586
eng	-1587
au	-1588
▁fem	-1589
▁academ	-1590
▁election	-1591
▁arab	-1592
▁help	-1593
▁test	-1594
▁critics	-1595
lo	-1596
▁schol	-1597
▁individual	-1598
ware	-1599
▁mart	-1600
▁feder	-1601
ination	-1602
▁service	-1603
▁line	-1604
▁list	-1605
▁mal	-1606
ection	-1607
▁point	-1608
▁founded	-1609
▁catholic	-1610
▁countries	-1611
▁few	-1612
ots	-1613
▁wid	-1614
ential	-1615
▁invest	-1616
▁review	-1617
▁research	-1618
▁requ	-1619
▁eas	-1620
▁promot	-1621
side	-1622
▁theory	-1623
▁dest	-1624
▁version	-1625
▁project	-1626
iod	-1627
akes	-1628
▁chinese	-1629
go	-1630
▁model	-1631
▁oppos	-1632
▁liberal	-1633
▁paul	-1634
ounced	-1635
sequ	-1636
▁cat	-1637
▁included	-1638
▁$	-1639
▁mis	-1640
▁sat	-1641
sych	-1642
▁bur	-1643
▁exec	-1644
▁fund	-1645
▁ital	-1646
▁defe	-1647
▁make	-1648
▁interv	-1649
▁eth	-1650
▁priv	-1651
▁friend	-1652
▁mer	-1653
iforn	-1654
▁whose	-1655
▁period	-1656
yr	-1657
▁unfortunately	-1658
▁policy	-1659
▁territ	-1660
▁without	-1661
▁tri	-1662
▁indust	-1663
▁fur	-1664
▁sent	-1665
▁commit	-1666
atic	-1667
▁californ	-1668
istic	-1669
▁neutral	-1670
▁special	-1671
▁county	-1672
▁society	-1673
▁ber	-1674
▁lim	-1675
▁example	-1676
▁real	-1677
▁every	-1678
▁performan	-1679
▁mount	-1680
pro	-1681
▁bush	-1682
▁case	-1683
▁cit	-1684
▁fail	-1685
▁gold	-1686
▁san	-1687
,"	-1688
▁import	-1689
▁heav	-1690
▁california	-1691
▁fire	-1692
▁press	-1693
▁similar	-1694
cast	-1695
▁esp	-1696
▁beaut	-1697
▁single	-1698
▁legend	-1699
tic	-1700
▁muslim	-1701
▁subject	-1702
▁fight	-1703
ency	-1704
▁recogn	-1705
ane	-1706
ript	-1707
ones	-1708
▁see	-1709
▁director	-1710
▁)	-1711
▁12	-1712
▁take	-1713
▁exist	-1714
▁third	-1715
▁novel	-1716
▁comb	-1717
-1	-1718
▁criticism	-1719
▁ban	-1720
lished	-1721
▁force	-1722
▁sum	-1723
▁michael	-1724
na	-1725
▁player	-1726
▁currently	-1727
▁site	-1728
ensive	-1729
▁je	-1730
▁cop	-1731
▁games	-1732
ards	-1733
▁chang	-1734
▁battle	-1735
aper	-1736
ze	-1737
▁quest	-1738
▁central	-1739
▁&	-1740
irl	-1741
▁hal	-1742
mit	-1743
▁cir	-1744
▁glob	-1745
▁fa	-1746
▁hold	-1747
my	-1748
ford	-1749
han	-1750
osp	-1751
▁tv	-1752
▁vol	-1753
ological	-1754
ront	-1755
▁ste	-1756
▁using	-1757
▁secret	-1758
▁ru	-1759
▁equ	-1760
▁imm	-1761
▁allow	-1762
▁ident	-1763
▁brother	-1764
cil	-1765
▁self	-1766
▁development	-1767
▁repl	-1768
▁title	-1769
▁evidence	-1770
▁revolution	-1771
▁cast	-1772
▁psych	-1773
ee	-1774
▁11	-1775
of	-1776
▁sym	-1777
▁region	-1778
▁australian	-1779
▁bor	-1780
▁ire	-1781
wards	-1782
▁each	-1783
▁13	-1784
▁belief	-1785
▁addition	-1786
ara	-1787
ched	-1788
▁five	-1789
▁features	-1790
▁init	-1791
kn	-1792
ences	-1793
▁mult	-1794
umb	-1795
ying	-1796
▁sometimes	-1797
▁terrorist	-1798
▁sug	-1799
▁given	-1800
▁concer	-1801
▁magaz	-1802
▁tem	-1803
▁doct	-1804
▁established	-1805
▁pen	-1806
▁mc	-1807
ille	-1808
▁soft	-1809
duction	-1810
oice	-1811
▁cel	-1812
▁month	-1813
▁health	-1814
▁release	-1815
▁interest	-1816
imate	-1817
ma	-1818
ches	-1819
▁ham	-1820
▁leaders	-1821
ox	-1822
itar	-1823
rated	-1824
▁germany	-1825
▁live	-1826
▁movie	-1827
▁disp	-1828
▁irish	-1829
▁sexual	-1830
▁different	-1831
▁gun	-1832
aining	-1833
ipp	-1834
▁anc	-1835
▁rul	-1836
ges	-1837
ino	-1838
▁hill	-1839
rid	-1840
▁democratic	-1841
be	-1842
▁liter	-1843
ecially	-1844
▁ireland	-1845
itor	-1846
▁grand	-1847
▁referred	-1848
ream	-1849
itive	-1850
▁appeared	-1851
▁produced	-1852
▁books	-1853
▁legal	-1854
ases	-1855
erous	-1856
▁der	-1857
▁il	-1858
▁promin	-1859
off	-1860
▁du	-1861
rote	-1862
▁politic	-1863
ising	-1864
▁economic	-1865
▁coll	-1866
most	-1867
▁tar	-1868
▁document	-1869
▁mot	-1870
▁compet	-1871
ilt	-1872
ops	-1873
▁earth	-1874
▁fictional	-1875
me	-1876
ploy	-1877
▁sev	-1878
▁days	-1879
▁stated	-1880
▁roy	-1881
▁mother	-1882
▁treat	-1883
lin	-1884
▁neg	-1885
▁upon	-1886
▁constit	-1887
▁pun	-1888
ament	-1889
iously	-1890
▁james	-1891
▁robert	-1892
ounder	-1893
▁night	-1894
▁cou	-1895
▁jews	-1896
▁further	-1897
▁reported	-1898
▁bomb	-1899
▁jack	-1900
▁market	-1901
6.	-1902
▁greek	-1903
▁process	-1904
▁girl	-1905
▁accept	-1906
▁command	-1907
urg	-1908
▁tal	-1909
▁emp	-1910
▁proper	-1911
ius	-1912
▁position	-1913
▁today	-1914
▁recent	-1915
▁less	-1916
▁described	-1917
ief	-1918
▁2007	-1919
▁does	-1920
ission	-1921
▁wife	-1922
▁confl	-1923
▁intro	-1924
▁wrote	-1925
▁scientific	-1926
▁extrem	-1927
▁guitar	-1928
▁served	-1929
▁mac	-1930
▁circ	-1931
▁hard	-1932
igious	-1933
ificant	-1934
▁fig	-1935
ellig	-1936
▁advoc	-1937
▁river	-1938
▁field	-1939
▁creation	-1940
ining	-1941
▁conn	-1942
cher	-1943
▁reb	-1944
erson	-1945
▁prest	-1946
ps	-1947
mad	-1948
▁jer	-1949
ators	-1950
▁mil	-1951
asion	-1952
▁wind	-1953
▁events	-1954
▁culture	-1955
▁big	-1956
▁students	-1957
elling	-1958
▁office	-1959
▁himself	-1960
▁palestinian	-1961
▁2004	-1962
▁creat	-1963
▁capital	-1964
▁village	-1965
▁fall	-1966
▁should	-1967
▁network	-1968
den	-1969
▁ale	-1970
▁2005	-1971
▁road	-1972
▁tour	-1973
▁council	-1974
▁japanese	-1975
acy	-1976
▁cup	-1977
▁inform	-1978
▁proble	-1979
▁especially	-1980
▁significant	-1981
ex	-1982
▁naz	-1983
▁cand	-1984
▁webs	-1985
▁contrib	-1986
▁express	-1987
▁past	-1988
reg	-1989
iers	-1990
iful	-1991
▁phys	-1992
▁rather	-1993
writ	-1994
▁fac	-1995
▁–	-1996
▁sus	-1997
▁read	-1998
ruction	-1999
▁france	-2000
dle	-2001
onst	-2002
▁green	-2003
▁noted	-2004
play	-2005
▁kore	-2006
▁taken	-2007
▁widely	-2008
thern	-2009
▁princ	-2010
▁african	-2011
▁congress	-2012
▁district	-2013
▁bir	-2014
urity	-2015
▁env	-2016
▁water	-2017
▁believe	-2018
▁notable	-2019
▁product	-2020
▁champions	-2021
stand	-2022
▁earl	-2023
▁tax	-2024
ending	-2025
ana	-2026
cing	-2027
▁let	-2028
utions	-2029
▁controversy	-2030
known	-2031
▁comput	-2032
▁conflict	-2033
bor	-2034
utes	-2035
▁wat	-2036
▁organiz	-2037
▁schools	-2038
ns	-2039
let	-2040
▁pak	-2041
▁wal	-2042
▁education	-2043
▁iran	-2044
▁independent	-2045
ya	-2046
ole	-2047
win	-2048
▁article	-2049
▁australia	-2050
▁mic	-2051
▁2008	-2052
▁throughout	-2053
cell	-2054
▁hon	-2055
ingly	-2056
▁foreign	-2057
▁southern	-2058
aint	-2059
▁canada	-2060
▁suggest	-2061
ats	-2062
▁works	-2063
▁episode	-2064
▁14	-2065
▁phot	-2066
▁magazine	-2067
▁important	-2068
▁ach	-2069
▁jose	-2070
nd	-2071
ique	-2072
iron	-2073
▁marri	-2074
oint	-2075
▁depart	-2076
▁traditional	-2077
▁aud	-2078
right	-2079
2)	-2080
aff	-2081
row	-2082
▁span	-2083
▁q	-2084
arily	-2085
▁bank	-2086
ances	-2087
▁federal	-2088
▁beautiful	-2089
▁involved	-2090
")	-2091
▁change	-2092
ump	-2093
▁ty	-2094
port	-2095
▁fun	-2096
▁tom	-2097
▁1970	-2098
▁1980	-2099
key	-2100
▁full	-2101
▁films	-2102
ky	-2103
▁smith	-2104
▁passing	-2105
▁building	-2106
1)	-2107
▁obs	-2108
▁tre	-2109
▁prime	-2110
▁ten	-2111
▁sel	-2112
▁bible	-2113
▁account	-2114
▁historical	-2115
3)	-2116
duced	-2117
▁opera	-2118
.,	-2119
hod	-2120
▁washing	-2121
▁canadian	-2122
▁performance	-2123
mar	-2124
▁fav	-2125
▁laun	-2126
▁intellig	-2127
▁software	-2128
▁sex	-2129
iding	-2130
ither	-2131
▁developed	-2132
▁goal	-2133
ortion	-2134
▁pakistan	-2135
wood	-2136
▁hig	-2137
▁commer	-2138
▁dou	-2139
▁security	-2140
▁mel	-2141
▁cond	-2142
▁subsequ	-2143
▁criticized	-2144
▁suff	-2145
▁comment	-2146
▁prestigious	-2147
uel	-2148
▁issues	-2149
▁street	-2150
▁interview	-2151
-19	-2152
atives	-2153
yl	-2154
▁tex	-2155
▁seen	-2156
▁thom	-2157
▁freed	-2158
▁washington	-2159
▁philos	-2160
▁ben	-2161
▁pan	-2162
▁operation	-2163
lect	-2164
▁1990	-2165
▁hot	-2166
▁sad	-2167
▁making	-2168
▁investig	-2169
▁communist	-2170
▁argu	-2171
▁certain	-2172
▁sound	-2173
▁190	-2174
▁level	-2175
▁action	-2176
▁generally	-2177
aker	-2178
▁anal	-2179
▁cross	-2180
▁light	-2181
▁independence	-2182
▁announced	-2183
▁newsp	-2184
▁occur	-2185
-2	-2186
oot	-2187
tal	-2188
▁continued	-2189
ata	-2190
eth	-2191
▁went	-2192
▁citiz	-2193
▁little	-2194
▁environ	-2195
▁private	-2196
7)	-2197
▁global	-2198
▁recently	-2199
▁los	-2200
▁islamic	-2201
▁spir	-2202
▁1,	-2203
▁body	-2204
apt	-2205
▁lou	-2206
▁put	-2207
ature	-2208
emb	-2209
men	-2210
▁bul	-2211
cover	-2212
▁dram	-2213
▁prison	-2214
▁largest	-2215
▁founder	-2216
▁producer	-2217
▁sn	-2218
▁transl	-2219
▁station	-2220
unt	-2221
▁foc	-2222
ross	-2223
rad	-2224
▁begin	-2225
▁separ	-2226
itz	-2227
▁sun	-2228
▁mater	-2229
▁particularly	-2230
▁fell	-2231
year	-2232
▁candid	-2233
gen	-2234
▁appl	-2235
▁find	-2236
▁illeg	-2237
▁scott	-2238
▁prominent	-2239
▁hor	-2240
▁minor	-2241
▁personal	-2242
6)	-2243
over	-2244
ously	-2245
▁mean	-2246
▁celeb	-2247
▁marriage	-2248
4)	-2249
hood	-2250
▁side	-2251
▁step	-2252
▁religion	-2253
ving	-2254
▁need	-2255
▁front	-2256
▁comedy	-2257
▁rob	-2258
▁squ	-2259
▁drug	-2260
▁majority	-2261
onse	-2262
time	-2263
pect	-2264
▁middle	-2265
ki	-2266
▁once	-2267
▁achie	-2268
▁object	-2269
hi	-2270
een	-2271
raft	-2272
▁stev	-2273
▁thus	-2274
▁consider	-2275
aughter	-2276
▁joseph	-2277
het	-2278
▁hall	-2279
orm	-2280
▁bal	-2281
▁low	-2282
▁shows	-2283
▁nation	-2284
▁website	-2285
▁association	-2286
ened	-2287
▁itself	-2288
▁playing	-2289
▁response	-2290
▁pot	-2291
iting	-2292
8)	-2293
osexual	-2294
▁artist	-2295
▁freedom	-2296
ech	-2297
▁lib	-2298
5)	-2299
▁ur	-2300
▁ground	-2301
▁concept	-2302
▁environment	-2303
▁married	-2304
▁natural	-2305
▁featured	-2306
nam	-2307
use	-2308
▁cost	-2309
▁originally	-2310
▁cub	-2311
▁os	-2312
ades	-2313
rian	-2314
▁hen	-2315
▁mad	-2316
▁thems	-2317
▁gar	-2318
▁eventually	-2319
01	-2320
ender	-2321
▁base	-2322
▁employ	-2323
▁internet	-2324
▁administration	-2325
oney	-2326
▁frank	-2327
▁stage	-2328
▁altern	-2329
▁scholars	-2330
▁sil	-2331
icated	-2332
▁areas	-2333
▁richard	-2334
▁practice	-2335
▁question	-2336
▁ve	-2337
▁charles	-2338
▁started	-2339
hem	-2340
rup	-2341
here	-2342
ef	-2343
field	-2344
▁dead	-2345
▁institute	-2346
▁organizations	-2347
▁sam	-2348
▁cred	-2349
▁shot	-2350
▁professional	-2351
▁189	-2352
ference	-2353
iated	-2354
▁ball	-2355
▁empire	-2356
▁mos	-2357
▁know	-2358
▁royal	-2359
▁teach	-2360
▁politician	-2361
ago	-2362
▁typ	-2363
▁week	-2364
▁close	-2365
▁frequ	-2366
▁engine	-2367
▁ant	-2368
▁meet	-2369
▁prem	-2370
▁soap	-2371
▁peace	-2372
▁style	-2373
▁princip	-2374
▁dam	-2375
elves	-2376
▁pred	-2377
ressive	-2378
▁nations	-2379
inux	-2380
▁maint	-2381
▁spanish	-2382
hel	-2383
▁wil	-2384
▁alex	-2385
▁mary	-2386
idents	-2387
▁massac	-2388
eter	-2389
▁bud	-2390
▁lad	-2391
▁half	-2392
▁parl	-2393
▁study	-2394
▁russia	-2395
▁championship	-2396
ands	-2397
reen	-2398
▁2006,	-2399
ography	-2400
▁directed	-2401
9)	-2402
bi	-2403
▁nav	-2404
▁trib	-2405
▁formed	-2406
▁legendary	-2407
rect	-2408
american	-2409
▁commercial	-2410
ij	-2411
ead	-2412
▁sea	-2413
▁woman	-2414
ought	-2415
ae	-2416
▁2003	-2417
ught	-2418
▁key	-2419
acedon	-2420
gether	-2421
▁impro	-2422
▁together	-2423
▁themselves	-2424
▁race	-2425
▁least	-2426
▁space	-2427
▁whom	-2428
▁avail	-2429
▁built	-2430
▁peter	-2431
▁gay	-2432
based	-2433
▁emer	-2434
▁corpor	-2435
ta	-2436
▁living	-2437
▁broadcast	-2438
nic	-2439
▁web	-2440
▁situ	-2441
▁relationship	-2442
sue	-2443
▁sup	-2444
▁1960	-2445
onents	-2446
imately	-2447
▁method	-2448
▁macedon	-2449
▁numerous	-2450
▁pay	-2451
▁saw	-2452
▁sem	-2453
▁deal	-2454
iation	-2455
▁months	-2456
▁medical	-2457
ites	-2458
▁hy	-2459
▁ukra	-2460
iament	-2461
amb	-2462
▁spirit	-2463
▁portray	-2464
▁material	-2465
ush	-2466
▁tor	-2467
aur	-2468
mod	-2469
▁enc	-2470
alled	-2471
▁reject	-2472
isl	-2473
uge	-2474
▁nar	-2475
enced	-2476
▁(200	-2477
▁30	-2478
▁ut	-2479
▁fut	-2480
▁ver	-2481
▁trag	-2482
enders	-2483
▁victory	-2484
like	-2485
ours	-2486
izing	-2487
▁gave	-2488
hammad	-2489
pr	-2490
uk	-2491
▁parliament	-2492
anda	-2493
▁mex	-2494
▁hind	-2495
▁lack	-2496
▁rule	-2497
ishing	-2498
▁entire	-2499
▁respons	-2500
▁information	-2501
▁inj	-2502
▁match	-2503
▁outside	-2504
roy	-2505
aries	-2506
▁chief	-2507
▁prior	-2508
▁almost	-2509
▁11,	-2510
usion	-2511
usal	-2512
▁fox	-2513
▁laws	-2514
▁surv	-2515
▁immig	-2516
▁theat	-2517
▁behind	-2518
▁towards	-2519
▁believed	-2520
▁("	-2521
▁working	-2522
▁writing	-2523
ds	-2524
▁holy	-2525
▁retur	-2526
▁target	-2527
ape	-2528
▁board	-2529
▁commonly	-2530
▁hus	-2531
ental	-2532
▁hero	-2533
▁angel	-2534
▁voc	-2535
uments	-2536
▁opposition	-2537
▁presidential	-2538
ria	-2539
wan	-2540
▁mcc	-2541
▁poet	-2542
writer	-2543
▁25	-2544
icted	-2545
▁pict	-2546
▁across	-2547
▁better	-2548
▁available	-2549
▁get	-2550
▁2001	-2551
▁neigh	-2552
▁caused	-2553
ification	-2554
▁fif	-2555
▁kar	-2556
▁linux	-2557
▁ancient	-2558
▁industry	-2559
▁dict	-2560
▁birth	-2561
▁eastern	-2562
▁ast	-2563
▁next	-2564
▁infam	-2565
▁contin	-2566
ids	-2567
wor	-2568
acher	-2569
▁chann	-2570
▁kh	-2571
berg	-2572
▁ult	-2573
ached	-2574
▁conduct	-2575
▁2,	-2576
gypt	-2577
▁emb	-2578
▁fort	-2579
▁coast	-2580
▁compos	-2581
▁latter	-2582
▁activist	-2583
▁africa	-2584
▁production	-2585
band	-2586
▁lik	-2587
▁highly	-2588
▁remov	-2589
▁student	-2590
ania	-2591
▁fasc	-2592
▁ship	-2593
ability	-2594
▁female	-2595
▁associated	-2596
▁ess	-2597
▁usually	-2598
▁agre	-2599
▁texas	-2600
▁includes	-2601
▁constitution	-2602
▁inn	-2603
▁away	-2604
▁insp	-2605
▁faith	-2606
▁supported	-2607
tt	-2608
edia	-2609
anted	-2610
▁turk	-2611
▁britain	-2612
▁discover	-2613
▁newspaper	-2614
bl	-2615
head	-2616
▁100	-2617
▁fer	-2618
ground	-2619
▁regular	-2620
enth	-2621
▁viet	-2622
▁egypt	-2623
▁songs	-2624
▁accused	-2625
▁studies	-2626
..	-2627
ida	-2628
ship	-2629
▁wood	-2630
▁2005,	-2631
▁interp	-2632
▁nature	-2633
▁surround	-2634
aled	-2635
▁colon	-2636
▁virgin	-2637
▁tim	-2638
▁adop	-2639
▁wall	-2640
▁clear	-2641
▁counter	-2642
▁services	-2643
▁territory	-2644
▁reve	-2645
▁demonst	-2646
oon	-2647
▁round	-2648
▁refers	-2649
▁discuss	-2650
▁players	-2651
cis	-2652
back	-2653
▁food	-2654
▁online	-2655
ha	-2656
0,000	-2657
istance	-2658
ging	-2659
▁domin	-2660
▁speech	-2661
▁brought	-2662
▁computer	-2663
rel	-2664
▁seven	-2665
▁either	-2666
fe	-2667
aps	-2668
▁(18	-2669
▁cut	-2670
▁serb	-2671
▁spok	-2672
▁2007,	-2673
▁attract	-2674
iant	-2675
▁simp	-2676
▁suprem	-2677
▁thomas	-2678
▁violence	-2679
▁lu	-2680
ville	-2681
▁instead	-2682
▁citizens	-2683
ico	-2684
▁incor	-2685
▁italian	-2686
duce	-2687
▁bay	-2688
▁mess	-2689
▁behav	-2690
▁distrib	-2691
▁particip	-2692
▁attention	-2693
▁homosexual	-2694
don	-2695
also	-2696
fact	-2697
ores	-2698
elled	-2699
▁records	-2700
fic	-2701
wide	-2702
▁collection	-2703
▁commission	-2704
umn	-2705
▁ze	-2706
▁our	-2707
▁van	-2708
▁2000	-2709
▁carol	-2710
▁defense	-2711
▁nick	-2712
vert	-2713
▁chall	-2714
▁earlier	-2715
▁policies	-2716
▁establish	-2717
▁influence	-2718
▁ran	-2719
▁muse	-2720
▁pain	-2721
▁text	-2722
▁vote	-2723
▁decision	-2724
ude	-2725
▁hous	-2726
▁love	-2727
▁systems	-2728
▁blood	-2729
▁might	-2730
▁centre	-2731
▁thought	-2732
za	-2733
▁;	-2734
▁di	-2735
ergy	-2736
▁amb	-2737
▁rac	-2738
▁summer	-2739
▁consist	-2740
▁critical	-2741
▁professor	-2742
bre	-2743
oman	-2744
▁finally	-2745
inn	-2746
ugg	-2747
▁21	-2748
ints	-2749
▁dut	-2750
▁stra	-2751
▁total	-2752
▁sources	-2753
▁followed	-2754
▁massacre	-2755
hol	-2756
▁ken	-2757
▁editor	-2758
▁recorded	-2759
▁foundation	-2760
abor	-2761
aged	-2762
▁fle	-2763
▁wit	-2764
rents	-2765
▁lake	-2766
▁nazi	-2767
▁arrest	-2768
ka	-2769
ula	-2770
asons	-2771
▁clos	-2772
▁trad	-2773
▁daughter	-2774
▁muhammad	-2775
olf	-2776
▁fr	-2777
▁ic	-2778
▁beginning	-2779
▁department	-2780
ste	-2781
▁187	-2782
▁deg	-2783
▁pow	-2784
iance	-2785
utive	-2786
▁crime	-2787
▁terms	-2788
▁legisl	-2789
▁return	-2790
▁abortion	-2791
tee	-2792
▁fans	-2793
▁link	-2794
▁trade	-2795
▁journal	-2796
▁killing	-2797
uth	-2798
lear	-2799
stream	-2800
▁micro	-2801
▁detail	-2802
▁mix	-2803
▁ended	-2804
▁heavy	-2805
▁nomin	-2806
▁forced	-2807
▁future	-2808
▁martin	-2809
tar	-2810
▁loss	-2811
▁heart	-2812
▁victor	-2813
see	-2814
ented	-2815
▁chair	-2816
▁ethnic	-2817
▁source	-2818
▁threat	-2819
▁vietnam	-2820
▁documentary	-2821
mir	-2822
▁hop	-2823
▁pra	-2824
▁swed	-2825
▁standard	-2826
part	-2827
rary	-2828
▁2009	-2829
▁eight	-2830
▁finan	-2831
▁access	-2832
▁incident	-2833
odox	-2834
▁jim	-2835
itect	-2836
▁chic	-2837
▁focus	-2838
ception	-2839
▁christianity	-2840
▁arts	-2841
▁academy	-2842
ays	-2843
▁orth	-2844
▁means	-2845
▁mostly	-2846
▁voice	-2847
▁perform	-2848
▁related	-2849
▁infamous	-2850
▁politics	-2851
▁soldiers	-2852
sec	-2853
ways	-2854
usalem	-2855
▁armed	-2856
▁remains	-2857
▁invasion	-2858
▁possible	-2859
▁bab	-2860
▁boy	-2861
▁break	-2862
▁border	-2863
▁gained	-2864
▁channel	-2865
▁24	-2866
imin	-2867
▁issue	-2868
▁museum	-2869
▁worked	-2870
ications	-2871
▁ha	-2872
ters	-2873
▁weap	-2874
▁range	-2875
isation	-2876
▁sports	-2877
▁influential	-2878
ims	-2879
▁label	-2880
▁notor	-2881
ada	-2882
aily	-2883
ingu	-2884
▁rab	-2885
▁ram	-2886
▁flor	-2887
▁regime	-2888
▁troops	-2889
▁governor	-2890
▁occupied	-2891
▁architect	-2892
▁evolution	-2893
▁journalist	-2894
la	-2895
ett	-2896
▁4,	-2897
▁id	-2898
▁dom	-2899
▁come	-2900
lement	-2901
▁parts	-2902
▁failed	-2903
▁status	-2904
▁jerusalem	-2905
mark	-2906
pher	-2907
▁happ	-2908
standing	-2909
▁variety	-2910
▁assass	-2911
▁cultural	-2912
▁entertain	-2913
ga	-2914
▁ce	-2915
racy	-2916
▁lee	-2917
▁rail	-2918
▁famil	-2919
▁distin	-2920
▁polish	-2921
▁technology	-2922
▁individuals	-2923
jan	-2924
ceived	-2925
▁2008,	-2926
▁thous	-2927
▁greatest	-2928
mp	-2929
▁shoot	-2930
▁primary	-2931
▁primarily	-2932
▁2010	-2933
▁idea	-2934
▁look	-2935
▁georg	-2936
ibility	-2937
ication	-2938
ilities	-2939
▁valley	-2940
▁mission	-2941
▁philosoph	-2942
▁christians	-2943
atory	-2944
▁sand	-2945
▁memor	-2946
▁performed	-2947
ari	-2948
▁mr	-2949
ibly	-2950
▁bin	-2951
▁roles	-2952
▁chicago	-2953
▁illegal	-2954
▁bad	-2955
antic	-2956
▁must	-2957
▁comic	-2958
▁committee	-2959
hib	-2960
▁conc	-2961
▁becom	-2962
▁programs	-2963
▁ol	-2964
▁fant	-2965
▁talk	-2966
▁daily	-2967
▁musical	-2968
▁intelligence	-2969
ba	-2970
fit	-2971
▁23	-2972
fully	-2973
▁blue	-2974
iction	-2975
▁americans	-2976
▁myth	-2977
▁introduced	-2978
ession	-2979
▁brand	-2980
▁guitarist	-2981
oms	-2982
▁dig	-2983
ander	-2984
▁lear	-2985
▁brown	-2986
nes	-2987
▁bat	-2988
▁leban	-2989
▁metal	-2990
▁parties	-2991
▁winning	-2992
▁destroy	-2993
▁opposed	-2994
▁pu	-2995
onic	-2996
▁face	-2997
▁languages	-2998
ny	-2999
▁cra	-3000
▁pit	-3001
▁elected	-3002
▁walk	-3003
▁native	-3004
▁screen	-3005
▁actions	-3006
▁respect	-3007
aza	-3008
ateg	-3009
medi	-3010
▁accom	-3011
▁consp	-3012
▁affair	-3013
▁justice	-3014
▁meaning	-3015
▁sir	-3016
▁bran	-3017
▁shar	-3018
▁symb	-3019
▁transp	-3020
▁accident	-3021
▁activities	-3022
▁purp	-3023
▁alternative	-3024
sw	-3025
lav	-3026
▁186	-3027
▁log	-3028
▁box	-3029
▁poor	-3030
▁awards	-3031
▁actually	-3032
▁candidate	-3033
▁featuring	-3034
,000	-3035
▁too	-3036
▁sect	-3037
atively	-3038
▁joined	-3039
▁islands	-3040
▁ca	-3041
gely	-3042
oper	-3043
asing	-3044
▁doctr	-3045
▁climate	-3046
▁efforts	-3047
▁reviews	-3048
▁designed	-3049
▁mainstream	-3050
kin	-3051
ols	-3052
ceed	-3053
ights	-3054
▁corn	-3055
▁guard	-3056
winning	-3057
▁conference	-3058
ipl	-3059
iqu	-3060
▁fat	-3061
▁bene	-3062
▁struct	-3063
▁francis	-3064
▁division	-3065
now	-3066
tra	-3067
▁(;	-3068
▁jr	-3069
▁fal	-3070
craft	-3071
▁murdered	-3072
ees	-3073
ify	-3074
war	-3075
▁22	-3076
king	-3077
▁wik	-3078
▁obama	-3079
▁higher	-3080
▁feature	-3081
uch	-3082
▁oil	-3083
▁gard	-3084
▁coach	-3085
▁louis	-3086
▁moved	-3087
▁simply	-3088
▁positive	-3089
▁occupation	-3090
gra	-3091
arter	-3092
lands	-3093
▁figure	-3094
▁orthodox	-3095
▁mah	-3096
▁brid	-3097
▁card	-3098
called	-3099
▁eastenders	-3100
ym	-3101
mitted	-3102
undred	-3103
▁negative	-3104
iff	-3105
▁hur	-3106
▁sav	-3107
aimed	-3108
▁cust	-3109
▁susp	-3110
▁scene	-3111
▁fourth	-3112
▁windows	-3113
▁az	-3114
▁ey	-3115
rupt	-3116
lying	-3117
▁fair	-3118
porary	-3119
▁defeat	-3120
▁starring	-3121
gu	-3122
aiwan	-3123
orter	-3124
▁(199	-3125
▁previous	-3126
▁pie	-3127
▁lord	-3128
▁mach	-3129
▁think	-3130
▁portug	-3131
▁returned	-3132
▁operating	-3133
ologist	-3134
▁active	-3135
▁argued	-3136
▁civilians	-3137
illy	-3138
▁hun	-3139
▁lif	-3140
▁plat	-3141
▁problems	-3142
▁property	-3143
▁cy	-3144
iracy	-3145
▁2002	-3146
▁compl	-3147
▁debate	-3148
▁frequently	-3149
rast	-3150
▁kos	-3151
ulated	-3152
▁spect	-3153
▁management	-3154
oura	-3155
pper	-3156
▁lives	-3157
▁whether	-3158
▁26	-3159
▁anne	-3160
uclear	-3161
▁money	-3162
▁collect	-3163
▁appearance	-3164
ners	-3165
▁syn	-3166
icide	-3167
▁cart	-3168
▁crim	-3169
iences	-3170
vement	-3171
▁subst	-3172
▁immedi	-3173
▁proposed	-3174
▁regarding	-3175
▁characters	-3176
gar	-3177
▁ker	-3178
▁ros	-3179
▁hundred	-3180
▁provides	-3181
▁supporters	-3182
har	-3183
▁abs	-3184
▁esc	-3185
▁norm	-3186
▁react	-3187
▁restrict	-3188
cle	-3189
▁ib	-3190
▁wide	-3191
▁guest	-3192
▁track	-3193
▁fiction	-3194
▁leadership	-3195
gl	-3196
val	-3197
rying	-3198
▁soon	-3199
▁cause	-3200
▁honor	-3201
▁campus	-3202
▁reform	-3203
▁signed	-3204
▁reports	-3205
▁liberation	-3206
illa	-3207
▁dog	-3208
opher	-3209
▁opin	-3210
▁captured	-3211
▁1950	-3212
▁debut	-3213
▁27	-3214
▁hosp	-3215
▁scen	-3216
▁senate	-3217
▁musician	-3218
▁financial	-3219
▁subsequently	-3220
aces	-3221
iple	-3222
▁bri	-3223
▁reason	-3224
▁taking	-3225
▁revolutionary	-3226
opp	-3227
ote	-3228
▁gn	-3229
▁armen	-3230
▁sadly	-3231
▁sport	-3232
▁changed	-3233
▁largely	-3234
pan	-3235
ysis	-3236
rence	-3237
▁able	-3238
▁acqu	-3239
▁raised	-3240
▁mountain	-3241
▁8,	-3242
▁oly	-3243
▁type	-3244
▁script	-3245
▁content	-3246
▁stories	-3247
ena	-3248
burg	-3249
▁enj	-3250
▁rap	-3251
▁yet	-3252
owned	-3253
stein	-3254
▁flag	-3255
▁repe	-3256
▁patri	-3257
▁appoint	-3258
▁artists	-3259
▁data	-3260
▁olymp	-3261
▁queen	-3262
▁strugg	-3263
▁taiwan	-3264
▁workers	-3265
▁academic	-3266
▁defeated	-3267
▁intended	-3268
▁provided	-3269
oid	-3270
▁ah	-3271
agan	-3272
pped	-3273
ston	-3274
▁luc	-3275
▁acts	-3276
▁uses	-3277
▁wars	-3278
▁extra	-3279
▁excell	-3280
▁protect	-3281
▁secretary	-3282
▁dar	-3283
▁2004,	-3284
▁saying	-3285
▁florida	-3286
▁theatre	-3287
▁resulted	-3288
▁socialist	-3289
mas	-3290
yan	-3291
▁apart	-3292
▁master	-3293
▁teacher	-3294
isc	-3295
▁arr	-3296
iment	-3297
ledge	-3298
▁date	-3299
▁scot	-3300
▁notably	-3301
azz	-3302
rick	-3303
▁allowed	-3304
▁remained	-3305
▁interpret	-3306
▁tragically	-3307
ala	-3308
▁provide	-3309
▁turkish	-3310
▁historian	-3311
▁=	-3312
oca	-3313
ola	-3314
bour	-3315
▁pil	-3316
isher	-3317
▁beat	-3318
▁above	-3319
▁/	-3320
mun	-3321
▁ott	-3322
▁sar	-3323
anian	-3324
▁blog	-3325
▁dark	-3326
▁drama	-3327
▁paris	-3328
dr	-3329
▁bow	-3330
▁asia	-3331
▁cases	-3332
ression	-3333
ked	-3334
▁rid	-3335
▁thr	-3336
igned	-3337
itors	-3338
uries	-3339
▁implement	-3340
▁true	-3341
▁italy	-3342
▁saint	-3343
▁temple	-3344
▁effects	-3345
▁launched	-3346
▁virginia	-3347
▁cov	-3348
▁jeff	-3349
▁kash	-3350
▁2010,	-3351
cluding	-3352
▁prince	-3353
▁muslims	-3354
▁scottish	-3355
▁authority	-3356
yer	-3357
ders	-3358
▁ded	-3359
angel	-3360
inton	-3361
▁coal	-3362
▁spain	-3363
▁staff	-3364
▁energy	-3365
ographer	-3366
olk	-3367
rong	-3368
▁22,	-3369
▁ris	-3370
▁adam	-3371
▁male	-3372
▁femin	-3373
▁jackson	-3374
▁describe	-3375
▁occurred	-3376
soft	-3377
▁bob	-3378
anced	-3379
ronic	-3380
▁nuclear	-3381
▁presented	-3382
▁nationalist	-3383
ca	-3384
▁23,	-3385
▁anarch	-3386
▁consum	-3387
▁keep	-3388
▁sett	-3389
▁turn	-3390
▁contem	-3391
▁korean	-3392
▁display	-3393
▁resistance	-3394
do	-3395
▁6,	-3396
▁7,	-3397
well	-3398
▁era	-3399
▁kur	-3400
oring	-3401
rison	-3402
▁aver	-3403
▁forms	-3404
▁henry	-3405
▁studio	-3406
▁changes	-3407
▁complex	-3408
▁limited	-3409
▁declared	-3410
▁families	-3411
ker	-3412
▁3,	-3413
▁ho	-3414
▁emph	-3415
▁fest	-3416
▁2007.	-3417
▁hindu	-3418
▁awarded	-3419
▁economy	-3420
▁perceived	-3421
▁28	-3422
▁diss	-3423
itarian	-3424
▁letter	-3425
▁offers	-3426
▁running	-3427
▁conspiracy	-3428
▁aw	-3429
ties	-3430
▁saf	-3431
▁ven	-3432
▁accl	-3433
▁virt	-3434
▁image	-3435
▁trump	-3436
▁radical	-3437
▁regarded	-3438
cont	-3439
▁13,	-3440
▁dro	-3441
aints	-3442
▁deep	-3443
▁sequ	-3444
▁zeal	-3445
▁angeles	-3446
▁classic	-3447
▁palestine	-3448
▁personality	-3449
dy	-3450
ibl	-3451
olit	-3452
▁poll	-3453
▁code	-3454
▁mind	-3455
▁prob	-3456
▁assert	-3457
▁cities	-3458
▁travel	-3459
▁carried	-3460
▁recognized	-3461
11	-3462
cies	-3463
west	-3464
ufact	-3465
▁jones	-3466
▁supreme	-3467
▁analysis	-3468
can	-3469
ona	-3470
rap	-3471
itled	-3472
▁anth	-3473
▁2006.	-3474
▁likely	-3475
▁stephen	-3476
▁criminal	-3477
▁previously	-3478
dra	-3479
ems	-3480
iter	-3481
▁hung	-3482
▁mist	-3483
▁2009,	-3484
▁labor	-3485
▁words	-3486
▁youth	-3487
▁terrorists	-3488
rep	-3489
▁argue	-3490
▁twent	-3491
▁helped	-3492
▁contest	-3493
▁scholar	-3494
▁articles	-3495
▁attacked	-3496
▁5,	-3497
inet	-3498
▁dyn	-3499
▁fra	-3500
▁ful	-3501
▁powerful	-3502
▁supposed	-3503
asy	-3504
din	-3505
down	-3506
hest	-3507
▁188	-3508
▁25,	-3509
▁joe	-3510
light	-3511
▁chap	-3512
▁matt	-3513
▁meas	-3514
▁deter	-3515
▁gradu	-3516
▁wales	-3517
▁fellow	-3518
▁poland	-3519
▁address	-3520
▁contract	-3521
▁supporting	-3522
▁hyp	-3523
house	-3524
ready	-3525
▁wild	-3526
▁argent	-3527
▁mainly	-3528
▁passed	-3529
▁scored	-3530
▁already	-3531
▁manufact	-3532
▁multiple	-3533
▁spiritual	-3534
50	-3535
▁—	-3536
▁16,	-3537
▁haw	-3538
anded	-3539
which	-3540
▁lower	-3541
▁obser	-3542
▁beliefs	-3543
▁husband	-3544
▁problem	-3545
▁weapons	-3546
▁attempts	-3547
▁revealed	-3548
iy	-3549
ja	-3550
▁ba	-3551
cons	-3552
akers	-3553
▁tenn	-3554
chester	-3555
▁approx	-3556
▁decided	-3557
▁mention	-3558
▁officer	-3559
▁writers	-3560
▁neighbor	-3561
▁executive	-3562
▁(,	-3563
rial	-3564
▁10,	-3565
▁got	-3566
▁tam	-3567
▁crow	-3568
▁brief	-3569
▁strip	-3570
▁labour	-3571
▁increased	-3572
▁microsoft	-3573
▁investigation	-3574
sa	-3575
izes	-3576
▁mob	-3577
▁2011	-3578
▁barb	-3579
▁medic	-3580
▁golden	-3581
▁friends	-3582
▁restaur	-3583
▁elections	-3584
▁treatment	-3585
ko	-3586
▁aim	-3587
▁fan	-3588
▁usa	-3589
▁2012	-3590
▁fear	-3591
▁ability	-3592
▁senator	-3593
▁suicide	-3594
▁becoming	-3595
▁existence	-3596
▁reference	-3597
oo	-3598
etic	-3599
▁30,	-3600
▁cris	-3601
▁color	-3602
▁trial	-3603
▁watch	-3604
▁opened	-3605
▁authors	-3606
▁approach	-3607
▁transport	-3608
ih	-3609
gun	-3610
oted	-3611
▁jul	-3612
▁via	-3613
▁enem	-3614
▁accus	-3615
▁block	-3616
itation	-3617
▁reached	-3618
▁shortly	-3619
▁accepted	-3620
▁hospital	-3621
▁cab	-3622
▁opt	-3623
▁celebr	-3624
▁province	-3625
▁knowledge	-3626
▁philosophy	-3627
▁12,	-3628
▁17,	-3629
▁ali	-3630
▁cru	-3631
▁korea	-3632
▁experience	-3633
▁entertainment	-3634
ift	-3635
aded	-3636
iles	-3637
▁ath	-3638
▁atl	-3639
▁lin	-3640
▁create	-3641
▁29	-3642
ault	-3643
chan	-3644
board	-3645
▁dang	-3646
▁dism	-3647
▁mont	-3648
▁intel	-3649
▁lived	-3650
▁param	-3651
▁plays	-3652
▁emphas	-3653
▁senior	-3654
▁scotland	-3655
▁excellent	-3656
▁historians	-3657
▁#	-3658
▁fel	-3659
▁grow	-3660
▁rank	-3661
▁latin	-3662
▁users	-3663
▁advert	-3664
▁connect	-3665
▁disputed	-3666
outh	-3667
star	-3668
▁cas	-3669
▁instr	-3670
▁course	-3671
▁kashmir	-3672
▁thousands	-3673
▁scientists	-3674
▁progressive	-3675
omet	-3676
▁jon	-3677
antly	-3678
force	-3679
▁gaza	-3680
▁estim	-3681
▁prize	-3682
▁aspect	-3683
▁composer	-3684
rol	-3685
greg	-3686
▁gal	-3687
▁mun	-3688
▁pac	-3689
▁ron	-3690
▁tow	-3691
▁alco	-3692
▁girls	-3693
▁universe	-3694
▁extremely	-3695
▁residents	-3696
aches	-3697
▁fred	-3698
▁page	-3699
▁sens	-3700
isions	-3701
▁bring	-3702
▁nearly	-3703
▁parents	-3704
30	-3705
oke	-3706
zil	-3707
▁50	-3708
brew	-3709
ends	-3710
ider	-3711
▁wee	-3712
▁magn	-3713
ficult	-3714
▁defin	-3715
▁enjoy	-3716
▁favor	-3717
▁always	-3718
▁minist	-3719
▁square	-3720
▁edition	-3721
▁committed	-3722
▁territories	-3723
urb	-3724
arab	-3725
face	-3726
▁cho	-3727
▁move	-3728
▁stan	-3729
▁told	-3730
lywood	-3731
▁witness	-3732
▁williams	-3733
▁companies	-3734
▁construction	-3735
▁rat	-3736
ordin	-3737
▁1999	-3738
▁penn	-3739
▁stone	-3740
▁difficult	-3741
▁:	-3742
acc	-3743
hic	-3744
ura	-3745
more	-3746
▁les	-3747
▁chart	-3748
▁conqu	-3749
▁ideas	-3750
▁owned	-3751
▁points	-3752
▁settle	-3753
▁animals	-3754
▁aircraft	-3755
▁militant	-3756
▁physical	-3757
▁theories	-3758
aves	-3759
esis	-3760
model	-3761
oslav	-3762
▁nine	-3763
▁rang	-3764
▁hours	-3765
▁print	-3766
▁circum	-3767
▁adopted	-3768
▁examples	-3769
▁opponents	-3770
▁worldwide	-3771
▁surrounding	-3772
ini	-3773
rant	-3774
▁bol	-3775
▁mit	-3776
▁gall	-3777
▁gram	-3778
ashion	-3779
▁challen	-3780
▁percent	-3781
▁allegedly	-3782
▁literature	-3783
▁officially	-3784
ita	-3785
▁15,	-3786
▁nic	-3787
▁degree	-3788
▁remain	-3789
▁collabor	-3790
▁environmental	-3791
cks	-3792
ghan	-3793
▁sac	-3794
ounded	-3795
▁kosov	-3796
▁condem	-3797
▁max	-3798
▁wel	-3799
▁attrib	-3800
▁except	-3801
▁quarter	-3802
▁attempted	-3803
esh	-3804
▁cer	-3805
▁dipl	-3806
▁clinton	-3807
▁prevent	-3808
▁pictures	-3809
▁contemporary	-3810
"),	-3811
lor	-3812
▁na	-3813
with	-3814
▁rand	-3815
▁reach	-3816
▁billion	-3817
▁figures	-3818
▁behavior	-3819
▁claiming	-3820
clus	-3821
▁kid	-3822
▁here	-3823
▁manager	-3824
▁inspired	-3825
▁extensive	-3826
▁responsible	-3827
▁approximately	-3828
bury	-3829
odes	-3830
▁26,	-3831
▁(198	-3832
▁makes	-3833
▁steve	-3834
▁howard	-3835
▁appears	-3836
▁violent	-3837
hab	-3838
▁gh	-3839
▁jac	-3840
▁basis	-3841
▁confir	-3842
ulations	-3843
▁respond	-3844
▁initially	-3845
ern	-3846
ume	-3847
▁lay	-3848
▁roll	-3849
▁hotel	-3850
▁weeks	-3851
▁compar	-3852
▁deaths	-3853
▁alliance	-3854
▁minority	-3855
▁destroyed	-3856
jo	-3857
ios	-3858
book	-3859
oral	-3860
▁ign	-3861
▁fame	-3862
▁teen	-3863
▁column	-3864
▁diplom	-3865
▁impact	-3866
▁necess	-3867
▁entered	-3868
▁removed	-3869
▁zealand	-3870
▁fighting	-3871
▁historic	-3872
▁replaced	-3873
da	-3874
iot	-3875
thy	-3876
iana	-3877
▁rise	-3878
▁amend	-3879
▁scand	-3880
▁brazil	-3881
▁propag	-3882
▁warming	-3883
▁officials	-3884
▁therefore	-3885
▁rh	-3886
▁ta	-3887
▁21,	-3888
▁lyn	-3889
▁boys	-3890
▁edward	-3891
▁wealth	-3892
▁complete	-3893
▁doctrine	-3894
▁buildings	-3895
bur	-3896
ont	-3897
rim	-3898
sen	-3899
▁),	-3900
kind	-3901
resp	-3902
▁bos	-3903
▁says	-3904
▁your	-3905
▁teams	-3906
▁crisis	-3907
▁longer	-3908
▁mormon	-3909
▁powers	-3910
▁notorious	-3911
▁immediately	-3912
);	-3913
kh	-3914
▁pap	-3915
▁rose	-3916
rative	-3917
▁stars	-3918
▁vehic	-3919
▁afghan	-3920
▁choice	-3921
▁minutes	-3922
▁location	-3923
▁allegations	-3924
bt	-3925
vi	-3926
sex	-3927
▁iv	-3928
▁cos	-3929
▁bibl	-3930
▁carl	-3931
▁sant	-3932
▁2011,	-3933
▁integ	-3934
▁acting	-3935
▁columb	-3936
▁priest	-3937
▁supermodel	-3938
▁yug	-3939
astic	-3940
▁mand	-3941
▁gender	-3942
▁illust	-3943
▁opinion	-3944
▁reflect	-3945
▁refused	-3946
▁renowned	-3947
▁strongly	-3948
ero	-3949
urs	-3950
ells	-3951
▁jos	-3952
▁mas	-3953
▁und	-3954
▁pron	-3955
▁seek	-3956
▁names	-3957
▁animal	-3958
▁mathem	-3959
▁complet	-3960
▁training	-3961
▁subsequent	-3962
ias	-3963
ken	-3964
ubb	-3965
▁et	-3966
amin	-3967
▁paper	-3968
▁amount	-3969
▁sitcom	-3970
▁serving	-3971
▁festival	-3972
bit	-3973
▁40	-3974
▁20,	-3975
▁lic	-3976
▁lov	-3977
▁purch	-3978
▁albert	-3979
▁hitler	-3980
▁spring	-3981
▁turned	-3982
▁johnson	-3983
▁od	-3984
inger	-3985
▁dise	-3986
▁stad	-3987
▁abuse	-3988
▁bridge	-3989
▁greater	-3990
▁offered	-3991
arm	-3992
iest	-3993
kins	-3994
▁19,	-3995
▁27,	-3996
▁28,	-3997
▁loy	-3998
ropri	-3999
▁increase	-4000
▁products	-4001
no	-4002
cel	-4003
iat	-4004
igan	-4005
▁mut	-4006
arent	-4007
▁budd	-4008
▁chur	-4009
▁camer	-4010
▁disapp	-4011
▁issued	-4012
▁turkey	-4013
▁compared	-4014
▁expressed	-4015
UN	-4016
ws	-4017
zz	-4018
▁18,	-4019
odies	-4020
▁2004.	-4021
▁spread	-4022
▁wilson	-4023
▁chairman	-4024
▁entitled	-4025
col	-4026
▁gri	-4027
isted	-4028
▁sund	-4029
▁zion	-4030
▁2013,	-4031
▁apost	-4032
▁below	-4033
▁miles	-4034
▁earned	-4035
▁owners	-4036
▁unique	-4037
▁airport	-4038
▁bombing	-4039
▁digital	-4040
▁extreme	-4041
▁opening	-4042
including	-4043
bon	-4044
abeth	-4045
aught	-4046
▁bass	-4047
▁assemb	-4048
▁attorn	-4049
▁daniel	-4050
▁animated	-4051
▁contains	-4052
▁contrast	-4053
▁coalition	-4054
▁macedonia	-4055
ua	-4056
...	-4057
▁ec	-4058
▁gas	-4059
▁gnu	-4060
▁sin	-4061
ension	-4062
▁2005.	-4063
▁charl	-4064
▁moore	-4065
▁skill	-4066
▁mexican	-4067
▁replace	-4068
▁officers	-4069
▁yugoslav	-4070
law	-4071
▁kl	-4072
ione	-4073
▁jean	-4074
▁toward	-4075
▁required	-4076
▁competition	-4077
ffic	-4078
road	-4079
▁2014	-4080
▁operations	-4081
6),	-4082
▁ox	-4083
ancy	-4084
haps	-4085
life	-4086
teen	-4087
▁14,	-4088
▁cin	-4089
▁jam	-4090
▁nob	-4091
inois	-4092
▁eliz	-4093
▁pope	-4094
▁croat	-4095
▁encoura	-4096
▁fashion	-4097
▁attended	-4098
▁terrorism	-4099
fa	-4100
nel	-4101
eman	-4102
ires	-4103
▁dun	-4104
▁dutch	-4105
▁average	-4106
▁quality	-4107
▁advanced	-4108
▁dedicated	-4109
tv	-4110
2),	-4111
aine	-4112
▁phr	-4113
▁vice	-4114
▁lebanon	-4115
▁churches	-4116
▁elements	-4117
▁illinois	-4118
▁popularity	-4119
▁institution	-4120
akh	-4121
▁dance	-4122
▁symbol	-4123
▁activity	-4124
▁dictator	-4125
▁distinct	-4126
▁positions	-4127
▁manchester	-4128
▁organisation	-4129
200	-4130
rey	-4131
aling	-4132
estic	-4133
▁fine	-4134
▁solo	-4135
▁2003,	-4136
▁judge	-4137
▁motor	-4138
▁penal	-4139
▁sales	-4140
▁propos	-4141
▁sister	-4142
▁affairs	-4143
▁meeting	-4144
▁section	-4145
▁rejected	-4146
▁suffered	-4147
▁alexander	-4148
▁conducted	-4149
▁statement	-4150
▁relatively	-4151
▁involvement	-4152
▁swe	-4153
▁cuba	-4154
▁drum	-4155
change	-4156
▁beach	-4157
▁placed	-4158
▁things	-4159
ifically	-4160
▁stadium	-4161
agh	-4162
sem	-4163
▁jun	-4164
iring	-4165
▁jazz	-4166
▁lady	-4167
▁phen	-4168
ington	-4169
▁autom	-4170
▁false	-4171
▁hands	-4172
▁veter	-4173
▁wikip	-4174
▁doctor	-4175
▁elimin	-4176
▁kosovo	-4177
▁launch	-4178
▁9,	-4179
▁lie	-4180
▁farm	-4181
▁enter	-4182
▁advent	-4183
▁charges	-4184
▁evangel	-4185
▁fantasy	-4186
▁species	-4187
▁achieved	-4188
▁creating	-4189
▁demonstr	-4190
▁completed	-4191
▁ukrainian	-4192
▁statements	-4193
3),	-4194
uls	-4195
vey	-4196
erto	-4197
gers	-4198
hold	-4199
▁bang	-4200
▁dial	-4201
▁feel	-4202
▁catal	-4203
▁nickn	-4204
▁wides	-4205
▁forest	-4206
▁library	-4207
▁reality	-4208
▁stating	-4209
▁medicine	-4210
ikh	-4211
pet	-4212
▁1.	-4213
▁ko	-4214
▁die	-4215
▁chem	-4216
▁give	-4217
▁iron	-4218
▁rate	-4219
▁overs	-4220
▁plans	-4221
▁sites	-4222
▁takes	-4223
▁effort	-4224
▁ukraine	-4225
▁arrested	-4226
▁carolina	-4227
▁literary	-4228
▁activists	-4229
▁movements	-4230
▁resulting	-4231
pa	-4232
erb	-4233
arks	-4234
forms	-4235
oston	-4236
▁(197	-4237
▁pack	-4238
▁thir	-4239
▁2001,	-4240
▁2008.	-4241
lectual	-4242
▁comics	-4243
▁correct	-4244
▁serious	-4245
▁continues	-4246
4),	-4247
ean	-4248
ket	-4249
vin	-4250
vere	-4251
▁ped	-4252
othes	-4253
▁slow	-4254
▁tact	-4255
formed	-4256
▁quick	-4257
ety	-4258
iser	-4259
ients	-4260
olved	-4261
ridge	-4262
▁1940	-4263
acular	-4264
ocaust	-4265
▁medal	-4266
▁speed	-4267
inating	-4268
▁alcohol	-4269
▁ottoman	-4270
▁results	-4271
▁brothers	-4272
▁paramilit	-4273
▁membership	-4274
ext	-4275
hat	-4276
hum	-4277
iced	-4278
seud	-4279
▁sab	-4280
onent	-4281
▁1998	-4282
▁doll	-4283
▁qual	-4284
▁apple	-4285
▁humor	-4286
▁calling	-4287
▁mankind	-4288
▁planned	-4289
▁reasons	-4290
▁describes	-4291
▁governments	-4292
oor	-4293
set	-4294
▁bc	-4295
▁ell	-4296
aging	-4297
pread	-4298
▁done	-4299
ressed	-4300
▁iraqi	-4301
▁ruled	-4302
▁perhaps	-4303
▁purpose	-4304
▁biblical	-4305
▁concerns	-4306
▁confeder	-4307
▁executed	-4308
▁amendment	-4309
▁convicted	-4310
▁providing	-4311
▁wikipedia	-4312
▁authorities	-4313
▁corporation	-4314
10	-4315
met	-4316
ras	-4317
atch	-4318
▁abc	-4319
▁amaz	-4320
▁bish	-4321
▁cham	-4322
ighter	-4323
▁hamas	-4324
▁stock	-4325
▁mexico	-4326
▁massive	-4327
▁practices	-4328
▁controlled	-4329
▁intellectual	-4330
-0	-4331
▁oh	-4332
mann	-4333
town	-4334
▁oce	-4335
▁wis	-4336
▁1991	-4337
▁gang	-4338
▁shown	-4339
▁annual	-4340
▁charge	-4341
▁flight	-4342
▁fought	-4343
▁kenned	-4344
▁showed	-4345
▁strike	-4346
▁treaty	-4347
▁armenian	-4348
▁continue	-4349
▁protests	-4350
▁widespread	-4351
ima	-4352
ening	-4353
ensus	-4354
tered	-4355
▁plot	-4356
▁pseud	-4357
▁sense	-4358
utation	-4359
▁albums	-4360
▁growing	-4361
▁distingu	-4362
▁afghanistan	-4363
ogue	-4364
▁qur	-4365
oking	-4366
▁morn	-4367
▁aired	-4368
▁holds	-4369
▁indic	-4370
▁older	-4371
▁urban	-4372
▁boston	-4373
▁closed	-4374
▁racist	-4375
▁saints	-4376
▁iranian	-4377
▁probably	-4378
▁holocaust	-4379
iar	-4380
asty	-4381
onom	-4382
unte	-4383
▁ash	-4384
▁jord	-4385
▁juda	-4386
▁moral	-4387
▁spent	-4388
▁racial	-4389
▁agreement	-4390
▁communities	-4391
▁legislation	-4392
ven	-4393
agon	-4394
▁folk	-4395
▁lind	-4396
▁wing	-4397
▁2001.	-4398
▁going	-4399
▁divers	-4400
▁enough	-4401
▁perman	-4402
▁captain	-4403
▁genesis	-4404
▁georgia	-4405
▁prophet	-4406
▁swedish	-4407
▁appointed	-4408
▁suggested	-4409
dam	-4410
iny	-4411
▁abd	-4412
▁wear	-4413
▁fifth	-4414
▁score	-4415
▁hebrew	-4416
▁larger	-4417
▁require	-4418
▁resident	-4419
▁situated	-4420
▁victoria	-4421
▁fundament	-4422
lv	-4423
chen	-4424
etts	-4425
iled	-4426
ises	-4427
otic	-4428
▁ack	-4429
▁han	-4430
▁mir	-4431
▁kind	-4432
▁runs	-4433
▁stop	-4434
ective	-4435
▁ancest	-4436
▁greece	-4437
▁heavily	-4438
▁function	-4439
▁teaching	-4440
▁testament	-4441
hor	-4442
▁31	-4443
▁vo	-4444
class	-4445
▁(201	-4446
▁added	-4447
▁share	-4448
▁combat	-4449
▁cooper	-4450
▁hosted	-4451
▁consequ	-4452
▁versions	-4453
▁recording	-4454
▁generation	-4455
▁industrial	-4456
8),	-4457
hens	-4458
▁185	-4459
▁lob	-4460
▁lyr	-4461
▁spl	-4462
▁grew	-4463
▁note	-4464
rising	-4465
▁2003.	-4466
▁2012,	-4467
▁lines	-4468
▁kennedy	-4469
▁leaving	-4470
▁repeated	-4471
▁commander	-4472
▁francisco	-4473
▁incorrect	-4474
▁translation	-4475
gian	-4476
▁pian	-4477
▁unit	-4478
▁brill	-4479
▁dream	-4480
▁graph	-4481
▁andrew	-4482
▁causes	-4483
▁inside	-4484
▁phenom	-4485
▁regional	-4486
▁publisher	-4487
▁teachings	-4488
80	-4489
iro	-4490
aren	-4491
▁nom	-4492
achus	-4493
▁arms	-4494
▁drew	-4495
▁evil	-4496
▁kong	-4497
▁2014,	-4498
▁adult	-4499
▁goals	-4500
▁harry	-4501
▁train	-4502
▁directly	-4503
▁episodes	-4504
▁occasion	-4505
imb	-4506
▁obt	-4507
heast	-4508
▁navy	-4509
▁cerem	-4510
▁wrest	-4511
▁resour	-4512
▁victims	-4513
▁apparent	-4514
▁baseball	-4515
▁founding	-4516
▁incorpor	-4517
▁fascinating	-4518
▁spectacular	-4519
ani	-4520
car	-4521
▁km	-4522
gener	-4523
thing	-4524
▁vast	-4525
▁brook	-4526
▁drugs	-4527
▁imper	-4528
▁mayor	-4529
▁theme	-4530
▁tried	-4531
▁agency	-4532
▁cancer	-4533
▁decades	-4534
▁request	-4535
▁instrument	-4536
▁immigration	-4537
60	-4538
oe	-4539
uff	-4540
▁--	-4541
▁ly	-4542
icit	-4543
▁aid	-4544
▁lew	-4545
going	-4546
▁1995	-4547
▁1996	-4548
▁1997	-4549
▁assum	-4550
▁dismiss	-4551
▁promote	-4552
▁volunte	-4553
▁argument	-4554
▁champion	-4555
▁formerly	-4556
▁protection	-4557
20	-4558
ali	-4559
▁wa	-4560
lers	-4561
▁24,	-4562
▁sud	-4563
iller	-4564
raham	-4565
▁1930	-4566
▁drag	-4567
▁prep	-4568
▁rare	-4569
▁occas	-4570
▁offer	-4571
▁pione	-4572
▁syrian	-4573
▁concert	-4574
▁convers	-4575
▁initial	-4576
▁morning	-4577
achusetts	-4578
▁attorney	-4579
▁elizabeth	-4580
▁protestant	-4581
▁neighborhood	-4582
▁massachusetts	-4583
▁2.	-4584
mond	-4585
▁tas	-4586
iques	-4587
▁marx	-4588
▁rival	-4589
mission	-4590
▁judaism	-4591
▁assassin	-4592
▁memorial	-4593
▁brilliant	-4594
▁christmas	-4595
▁democrats	-4596
▁discovered	-4597
▁influenced	-4598
rd	-4599
eds	-4600
ares	-4601
stit	-4602
thur	-4603
uese	-4604
▁ple	-4605
uting	-4606
▁mike	-4607
▁tend	-4608
▁user	-4609
▁robin	-4610
vereign	-4611
▁custom	-4612
▁remark	-4613
▁sunday	-4614
▁centuries	-4615
▁involving	-4616
▁sovereign	-4617
ota	-4618
▁iii	-4619
▁mig	-4620
▁2016	-4621
▁fast	-4622
▁impl	-4623
▁broke	-4624
▁cited	-4625
▁crash	-4626
▁wrong	-4627
▁starting	-4628
▁propaganda	-4629
run	-4630
▁nbc	-4631
endum	-4632
icket	-4633
▁1994	-4634
▁room	-4635
istics	-4636
▁plant	-4637
▁serve	-4638
▁specific	-4639
▁completely	-4640
ado	-4641
ati	-4642
iah	-4643
ips	-4644
sey	-4645
onym	-4646
▁kel	-4647
▁guer	-4648
▁marc	-4649
▁affil	-4650
▁truth	-4651
▁votes	-4652
ologies	-4653
▁declar	-4654
▁reaction	-4655
▁documents	-4656
ope	-4657
bell	-4658
▁cow	-4659
▁daw	-4660
▁gil	-4661
cript	-4662
▁bern	-4663
▁hair	-4664
▁sher	-4665
▁innov	-4666
▁estate	-4667
▁comments	-4668
▁performances	-4669
40	-4670
ii	-4671
▁rug	-4672
▁tan	-4673
▁brut	-4674
▁porn	-4675
▁slav	-4676
▁phrase	-4677
▁highest	-4678
▁showing	-4679
▁allowing	-4680
▁publication	-4681
▁representatives	-4682
.)	-4683
any	-4684
rus	-4685
▁exc	-4686
ivity	-4687
under	-4688
uther	-4689
▁firm	-4690
▁seem	-4691
▁avoid	-4692
▁fired	-4693
▁rabbi	-4694
entions	-4695
▁acknow	-4696
▁garden	-4697
▁domestic	-4698
▁possibly	-4699
▁democracy	-4700
▁hollywood	-4701
▁ultimately	-4702
des	-4703
nat	-4704
spe	-4705
▁ts	-4706
▁bon	-4707
rants	-4708
▁2015	-4709
▁cold	-4710
▁poly	-4711
▁tony	-4712
commun	-4713
garian	-4714
▁calls	-4715
▁cinem	-4716
▁miller	-4717
▁safety	-4718
▁aggress	-4719
▁enforce	-4720
▁audience	-4721
▁designer	-4722
▁mentioned	-4723
kes	-4724
pre	-4725
andon	-4726
▁tort	-4727
▁somew	-4728
▁stren	-4729
▁attend	-4730
▁denied	-4731
▁trying	-4732
▁concent	-4733
▁contact	-4734
▁shooting	-4735
▁classical	-4736
▁background	-4737
▁portuguese	-4738
▁universities	-4739
ux	-4740
ube	-4741
▁bom	-4742
▁cyp	-4743
inity	-4744
▁elev	-4745
▁khan	-4746
▁synd	-4747
person	-4748
▁annex	-4749
▁donald	-4750
▁double	-4751
▁expans	-4752
▁models	-4753
▁search	-4754
▁disease	-4755
▁presence	-4756
▁offensive	-4757
▁educational	-4758
ulf	-4759
cles	-4760
itch	-4761
▁29,	-4762
▁hay	-4763
▁tay	-4764
▁bapt	-4765
▁fill	-4766
▁moon	-4767
encies	-4768
▁philipp	-4769
▁humanity	-4770
▁appearing	-4771
▁potential	-4772
sl	-4773
who	-4774
dney	-4775
▁ray	-4776
▁gosp	-4777
▁greg	-4778
▁rome	-4779
▁2009.	-4780
oration	-4781
▁actual	-4782
▁growth	-4783
▁puerto	-4784
▁titled	-4785
▁titles	-4786
▁wonder	-4787
▁persons	-4788
▁possess	-4789
▁identity	-4790
▁acclaimed	-4791
▁referendum	-4792
hr	-4793
9),	-4794
aka	-4795
ova	-4796
▁dv	-4797
▁hug	-4798
chest	-4799
ollah	-4800
▁huge	-4801
▁drive	-4802
▁herit	-4803
▁ocean	-4804
▁rules	-4805
▁libert	-4806
▁mechan	-4807
▁penins	-4808
▁prosec	-4809
▁serbian	-4810
▁accounts	-4811
▁constant	-4812
▁coverage	-4813
▁struggle	-4814
▁portrayed	-4815
zb	-4816
mes	-4817
oul	-4818
itude	-4819
▁2013	-4820
▁bear	-4821
▁peak	-4822
▁matters	-4823
▁numbers	-4824
▁withdra	-4825
▁advocates	-4826
▁identified	-4827
▁intelligent	-4828
ales	-4829
ette	-4830
iger	-4831
such	-4832
▁bah	-4833
eless	-4834
▁1992	-4835
▁bell	-4836
▁burn	-4837
▁categ	-4838
▁enemy	-4839
▁syria	-4840
▁berlin	-4841
▁coming	-4842
▁headqu	-4843
▁wanted	-4844
▁defence	-4845
▁hundreds	-4846
▁provision	-4847
▁questions	-4848
▁situation	-4849
▁neutrality	-4850
not	-4851
oir	-4852
pat	-4853
ador	-4854
oses	-4855
▁hab	-4856
ulate	-4857
▁myst	-4858
▁basic	-4859
▁genoc	-4860
▁piece	-4861
▁branch	-4862
▁giving	-4863
▁holding	-4864
▁alongside	-4865
▁programme	-4866
▁recognition	-4867
7),	-4868
▁ip	-4869
▁bey	-4870
▁dur	-4871
▁kir	-4872
▁camb	-4873
▁draw	-4874
▁hills	-4875
▁squad	-4876
respond	-4877
▁places	-4878
▁failure	-4879
▁produce	-4880
▁advocate	-4881
▁civilian	-4882
▁pressure	-4883
▁separate	-4884
▁correspond	-4885
▁reputation	-4886
▁appearances	-4887
sch	-4888
▁ul	-4889
just	-4890
▁mom	-4891
▁neo	-4892
▁tab	-4893
▁cann	-4894
▁marg	-4895
▁paid	-4896
▁tower	-4897
▁trust	-4898
▁studied	-4899
▁exchange	-4900
▁partners	-4901
▁projects	-4902
▁estimated	-4903
▁something	-4904
▁structure	-4905
▁typically	-4906
▁conditions	-4907
▁destruction	-4908
▁scientology	-4909
▁specifically	-4910
▁homosexuality	-4911
▁interpretation	-4912
5),	-4913
▁ku	-4914
pass	-4915
▁183	-4916
▁kim	-4917
▁mol	-4918
▁athe	-4919
▁hann	-4920
▁harm	-4921
▁save	-4922
▁asian	-4923
▁store	-4924
▁abandon	-4925
▁heritage	-4926
▁construct	-4927
▁researcher	-4928
▁philosopher	-4929
▁establishment	-4930
gr	-4931
wa	-4932
udi	-4933
▁ax	-4934
fect	-4935
▁tun	-4936
lines	-4937
stone	-4938
▁semi	-4939
▁snow	-4940
astern	-4941
▁asked	-4942
▁cuban	-4943
▁marsh	-4944
▁revol	-4945
▁silver	-4946
▁twenty	-4947
▁assault	-4948
▁corrupt	-4949
▁persian	-4950
▁hypothes	-4951
▁peninsula	-4952
▁increasing	-4953
▁institutions	-4954
ogy	-4955
▁60	-4956
aret	-4957
rell	-4958
▁kat	-4959
▁1987	-4960
▁brig	-4961
▁kurd	-4962
▁ohio	-4963
▁pick	-4964
▁2016,	-4965
▁davis	-4966
▁owner	-4967
▁voted	-4968
▁listed	-4969
▁lyrics	-4970
▁physic	-4971
▁sought	-4972
▁penalty	-4973
▁assembly	-4974
▁combination	-4975
▁ga	-4976
▁184	-4977
inter	-4978
olitan	-4979
▁chris	-4980
▁trail	-4981
▁normal	-4982
ologists	-4983
▁abraham	-4984
▁managed	-4985
▁receive	-4986
▁prisoners	-4987
▁macedonian	-4988
▁successfully	-4989
bal	-4990
bro	-4991
uit	-4992
▁bh	-4993
▁err	-4994
▁rot	-4995
▁1993	-4996
▁crew	-4997
▁sout	-4998
taking	-4999
▁forum	-5000
▁tamil	-5001
▁disney	-5002
▁humans	-5003
▁stance	-5004
ographic	-5005
▁expected	-5006
▁universal	-5007
icks	-5008
onto	-5009
roll	-5010
▁ori	-5011
aming	-5012
eland	-5013
shire	-5014
▁bias	-5015
▁duke	-5016
inians	-5017
▁grant	-5018
▁jacob	-5019
▁observ	-5020
▁remove	-5021
▁serves	-5022
▁covered	-5023
▁ideology	-5024
▁remember	-5025
▁effective	-5026
▁standards	-5027
▁nomination	-5028
eda	-5029
iate	-5030
rican	-5031
tired	-5032
▁brian	-5033
▁emper	-5034
▁quite	-5035
▁actors	-5036
▁jordan	-5037
▁losing	-5038
▁matthe	-5039
▁vision	-5040
▁orchest	-5041
▁operated	-5042
sm	-5043
▁0	-5044
adel	-5045
▁gib	-5046
▁rud	-5047
▁suc	-5048
prise	-5049
▁prol	-5050
ifying	-5051
▁exhib	-5052
▁multi	-5053
▁negot	-5054
▁couple	-5055
▁depict	-5056
▁easily	-5057
▁acknowled	-5058
▁underground	-5059
def	-5060
eed	-5061
▁$1	-5062
oked	-5063
olics	-5064
▁bosn	-5065
▁brad	-5066
▁pear	-5067
christ	-5068
friend	-5069
▁bands	-5070
▁basket	-5071
▁conver	-5072
▁houses	-5073
▁streng	-5074
▁unlike	-5075
▁herself	-5076
▁bulgarian	-5077
▁republicans	-5078
▁representative	-5079
cow	-5080
eld	-5081
▁fu	-5082
▁500	-5083
▁bru	-5084
▁cry	-5085
ansas	-5086
maker	-5087
▁mort	-5088
▁arabic	-5089
▁winner	-5090
▁pacific	-5091
▁attracted	-5092
▁followers	-5093
▁represented	-5094
qa	-5095
agn	-5096
rec	-5097
enny	-5098
rene	-5099
▁alf	-5100
▁jur	-5101
▁pir	-5102
ading	-5103
▁cosm	-5104
▁hart	-5105
▁ross	-5106
▁2002,	-5107
▁indig	-5108
▁barack	-5109
▁breath	-5110
▁ending	-5111
▁explos	-5112
▁lawyer	-5113
entially	-5114
▁experien	-5115
▁famously	-5116
▁superior	-5117
▁necessary	-5118
▁performing	-5119
▁songwriter	-5120
▁accusations	-5121
▁da	-5122
zech	-5123
▁aer	-5124
▁bes	-5125
▁rum	-5126
gment	-5127
ockey	-5128
rical	-5129
engers	-5130
▁arran	-5131
▁leave	-5132
▁mixed	-5133
▁units	-5134
▁belong	-5135
▁prohib	-5136
▁punish	-5137
▁aspects	-5138
▁partner	-5139
▁recover	-5140
▁principles	-5141
ato	-5142
equ	-5143
erc	-5144
oln	-5145
▁1982	-5146
▁hong	-5147
▁jane	-5148
profit	-5149
▁legit	-5150
▁meant	-5151
▁rapid	-5152
▁arthur	-5153
▁prompt	-5154
▁taylor	-5155
▁advance	-5156
▁amongst	-5157
▁context	-5158
▁secular	-5159
▁composed	-5160
▁ministry	-5161
▁transfer	-5162
▁distribution	-5163
ela	-5164
phy	-5165
sylv	-5166
urer	-5167
▁job	-5168
▁sky	-5169
ceeded	-5170
▁minim	-5171
▁rugby	-5172
▁upper	-5173
▁whole	-5174
▁format	-5175
▁simple	-5176
▁values	-5177
▁N	-5178
▁..	-5179
▁35	-5180
aver	-5181
▁leon	-5182
▁naval	-5183
▁iconic	-5184
▁emperor	-5185
▁overall	-5186
▁patrick	-5187
▁retired	-5188
▁weather	-5189
▁admitted	-5190
▁islamist	-5191
▁catholics	-5192
▁receiving	-5193
era	-5194
mus	-5195
rin	-5196
pool	-5197
rage	-5198
resh	-5199
▁path	-5200
▁paint	-5201
iations	-5202
▁matter	-5203
▁metrop	-5204
▁movies	-5205
▁revers	-5206
▁accompl	-5207
▁forward	-5208
▁regions	-5209
▁toronto	-5210
▁discovery	-5211
▁expansion	-5212
▁distinguished	-5213
1),	-5214
aly	-5215
rog	-5216
enue	-5217
▁ari	-5218
enant	-5219
▁ways	-5220
▁2000.	-5221
▁2010.	-5222
▁pursu	-5223
▁tourn	-5224
western	-5225
▁astron	-5226
▁banned	-5227
▁budget	-5228
▁marked	-5229
▁sweden	-5230
▁conclud	-5231
▁dynasty	-5232
▁methods	-5233
▁premier	-5234
▁employees	-5235
▁militants	-5236
▁commentator	-5237
▁contributions	-5238
'.	-5239
uct	-5240
aped	-5241
asts	-5242
come	-5243
hire	-5244
▁eug	-5245
▁lev	-5246
ailed	-5247
itter	-5248
▁coup	-5249
▁diet	-5250
▁fuel	-5251
▁hell	-5252
▁resc	-5253
▁size	-5254
▁adapt	-5255
▁comes	-5256
▁czech	-5257
sylvania	-5258
▁applied	-5259
▁opportun	-5260
▁convention	-5261
▁paramilitary	-5262
ju	-5263
va	-5264
emor	-5265
iang	-5266
archy	-5267
eller	-5268
illing	-5269
▁2011.	-5270
▁inhab	-5271
▁value	-5272
▁bodies	-5273
▁defend	-5274
▁demand	-5275
▁memory	-5276
▁proved	-5277
▁sydney	-5278
▁cartoon	-5279
▁theater	-5280
▁combined	-5281
▁michigan	-5282
▁predomin	-5283
▁mountains	-5284
',	-5285
nn	-5286
unk	-5287
alin	-5288
ella	-5289
▁...	-5290
▁alone	-5291
▁brain	-5292
▁touch	-5293
▁usage	-5294
▁vocal	-5295
clusion	-5296
related	-5297
▁somewhat	-5298
▁execution	-5299
▁techniques	-5300
▁engineering	-5301
▁pennsylvania	-5302
70	-5303
ni	-5304
ika	-5305
mat	-5306
oft	-5307
▁9/	-5308
athy	-5309
ding	-5310
uled	-5311
▁31,	-5312
ophob	-5313
▁(196	-5314
▁alan	-5315
▁punk	-5316
▁zone	-5317
▁fully	-5318
▁crimes	-5319
▁fields	-5320
▁oxford	-5321
▁regist	-5322
▁autonom	-5323
▁details	-5324
▁seasons	-5325
▁accompan	-5326
▁imperial	-5327
▁internal	-5328
▁maintain	-5329
▁nominated	-5330
▁constitutional	-5331
gn	-5332
pg	-5333
hus	-5334
och	-5335
sel	-5336
▁ske	-5337
▁von	-5338
tario	-5339
▁hezb	-5340
▁kidn	-5341
▁prec	-5342
▁tall	-5343
▁athle	-5344
▁emerg	-5345
▁speak	-5346
▁beauty	-5347
▁beyond	-5348
▁charged	-5349
▁starred	-5350
▁determin	-5351
▁condition	-5352
▁containing	-5353
▁politicians	-5354
alf	-5355
awa	-5356
yth	-5357
cycl	-5358
enez	-5359
hero	-5360
▁kil	-5361
▁answ	-5362
arters	-5363
▁2000,	-5364
▁allen	-5365
▁copyr	-5366
▁crowd	-5367
▁assist	-5368
▁reduce	-5369
▁descent	-5370
▁separat	-5371
▁setting	-5372
▁supports	-5373
▁basketball	-5374
▁assassination	-5375
mu	-5376
ava	-5377
pop	-5378
▁alt	-5379
▁ark	-5380
▁dub	-5381
▁ens	-5382
urate	-5383
▁twel	-5384
govern	-5385
▁explo	-5386
▁allows	-5387
▁franch	-5388
▁levels	-5389
▁ontario	-5390
▁mathemat	-5391
▁organized	-5392
▁remaining	-5393
kel	-5394
from	-5395
song	-5396
▁cul	-5397
▁dor	-5398
erved	-5399
▁1989	-5400
itable	-5401
▁jimmy	-5402
▁magic	-5403
▁insurg	-5404
▁serbia	-5405
▁spoken	-5406
▁funding	-5407
▁nothing	-5408
▁soldier	-5409
▁strateg	-5410
▁technical	-5411
▁settlement	-5412
▁declaration	-5413
▁palestinians	-5414
aud	-5415
▁ak	-5416
fire	-5417
ista	-5418
rapy	-5419
utor	-5420
▁cbs	-5421
▁fit	-5422
▁lot	-5423
▁nik	-5424
▁unc	-5425
ashed	-5426
▁abol	-5427
▁jess	-5428
▁tren	-5429
ultural	-5430
▁cancell	-5431
▁fighter	-5432
▁machine	-5433
▁genocide	-5434
▁straight	-5435
▁confirmed	-5436
▁dangerous	-5437
▁celebrated	-5438
top	-5439
▁nag	-5440
▁tib	-5441
▁wed	-5442
acity	-5443
▁cell	-5444
▁exam	-5445
▁felt	-5446
▁nich	-5447
▁buddh	-5448
▁consc	-5449
▁links	-5450
▁suppl	-5451
▁voters	-5452
▁causing	-5453
▁chapter	-5454
▁defined	-5455
▁unknown	-5456
▁electric	-5457
▁suggests	-5458
▁arguments	-5459
aya	-5460
itic	-5461
iable	-5462
ipped	-5463
ovich	-5464
▁buck	-5465
century	-5466
▁explan	-5467
▁mental	-5468
▁denomin	-5469
▁picture	-5470
▁mainland	-5471
▁publicly	-5472
▁substant	-5473
▁argentina	-5474
▁hezbollah	-5475
▁permanent	-5476
▁interesting	-5477
▁considerable	-5478
▁characterized	-5479
5%	-5480
zen	-5481
eted	-5482
wise	-5483
▁gol	-5484
▁rub	-5485
▁upd	-5486
aijan	-5487
apore	-5488
enous	-5489
itzer	-5490
orted	-5491
urday	-5492
▁bull	-5493
▁crus	-5494
▁ford	-5495
▁ring	-5496
▁2015,	-5497
▁analy	-5498
▁deliv	-5499
▁uncon	-5500
▁argues	-5501
▁carter	-5502
▁excess	-5503
▁marvel	-5504
▁moving	-5505
▁prepar	-5506
▁tragic	-5507
▁viewed	-5508
▁clearly	-5509
▁descend	-5510
▁albanian	-5511
▁columbia	-5512
▁fighters	-5513
▁theology	-5514
▁condemned	-5515
▁copyright	-5516
▁portrayal	-5517
▁immigrants	-5518
ji	-5519
pie	-5520
▁ms	-5521
ilst	-5522
lets	-5523
nest	-5524
osen	-5525
▁pul	-5526
▁sri	-5527
▁unus	-5528
▁whit	-5529
adelph	-5530
icious	-5531
orship	-5532
▁anton	-5533
▁canon	-5534
▁lingu	-5535
▁lobby	-5536
▁rough	-5537
▁skept	-5538
▁damage	-5539
▁dancer	-5540
▁prefer	-5541
▁scandal	-5542
▁singles	-5543
▁contributed	-5544
▁libertarian	-5545
die	-5546
hev	-5547
kee	-5548
gate	-5549
rich	-5550
▁sie	-5551
▁sor	-5552
ption	-5553
▁pier	-5554
▁samp	-5555
▁seat	-5556
▁stew	-5557
▁unsu	-5558
incoln	-5559
▁agent	-5560
▁twice	-5561
▁linked	-5562
erbaijan	-5563
▁derived	-5564
▁letters	-5565
▁reading	-5566
▁colonial	-5567
▁consists	-5568
▁promoted	-5569
▁resources	-5570
▁attributed	-5571
▁connection	-5572
▁photograph	-5573
▁experienced	-5574
18	-5575
▁kr	-5576
anth	-5577
fits	-5578
idel	-5579
isan	-5580
▁ibn	-5581
▁ric	-5582
burgh	-5583
▁1984	-5584
▁guns	-5585
▁lect	-5586
▁risk	-5587
icient	-5588
▁1999,	-5589
▁gives	-5590
▁sched	-5591
claimed	-5592
▁allies	-5593
▁racism	-5594
▁stands	-5595
▁whilst	-5596
▁contain	-5597
▁enjoyed	-5598
▁acquired	-5599
▁atlantic	-5600
▁platform	-5601
▁survived	-5602
▁facilities	-5603
▁restaurant	-5604
▁architecture	-5605
AD	-5606
exp	-5607
she	-5608
▁AD	-5609
▁fab	-5610
▁pin	-5611
▁1981	-5612
▁kent	-5613
▁pray	-5614
▁expos	-5615
▁newly	-5616
▁simon	-5617
▁stere	-5618
ilation	-5619
▁behavi	-5620
▁flying	-5621
▁scenes	-5622
▁capture	-5623
▁dispute	-5624
▁granted	-5625
▁lincoln	-5626
▁believes	-5627
▁scientist	-5628
▁interviews	-5629
▁yugoslavia	-5630
▁distinction	-5631
▁conservatives	-5632
net	-5633
▁32	-5634
▁dj	-5635
adow	-5636
ocol	-5637
oken	-5638
▁hip	-5639
▁uns	-5640
berts	-5641
rator	-5642
▁adhe	-5643
coming	-5644
▁clubs	-5645
▁genre	-5646
▁agreed	-5647
▁copies	-5648
▁victim	-5649
▁peoples	-5650
▁traffic	-5651
▁younger	-5652
▁hurrican	-5653
▁writings	-5654
▁responded	-5655
br	-5656
500	-5657
box	-5658
lad	-5659
org	-5660
rie	-5661
roc	-5662
▁ok	-5663
▁om	-5664
fort	-5665
ategy	-5666
place	-5667
▁hear	-5668
▁oreg	-5669
▁sons	-5670
▁spin	-5671
▁chile	-5672
▁incom	-5673
▁recru	-5674
asingly	-5675
vements	-5676
▁bulgar	-5677
▁sequel	-5678
▁temper	-5679
▁chronic	-5680
▁consult	-5681
▁pattern	-5682
▁guardian	-5683
▁portugal	-5684
▁challenge	-5685
▁editorial	-5686
▁additional	-5687
▁publishing	-5688
▁traditions	-5689
▁historically	-5690
▁increasingly	-5691
erve	-5692
ifer	-5693
view	-5694
ellow	-5695
essee	-5696
itism	-5697
▁1920	-5698
▁1948	-5699
▁1971	-5700
▁harv	-5701
▁flood	-5702
▁lewis	-5703
▁price	-5704
▁saudi	-5705
▁castle	-5706
▁nether	-5707
▁orange	-5708
adelphia	-5709
irection	-5710
▁engaged	-5711
▁railway	-5712
▁progress	-5713
▁technique	-5714
▁businessman	-5715
▁applications	-5716
OUN	-5717
ipe	-5718
wal	-5719
ager	-5720
aire	-5721
athan	-5722
enger	-5723
▁1972	-5724
▁1986	-5725
▁1988	-5726
▁NOUN	-5727
▁joan	-5728
▁mans	-5729
▁rape	-5730
bourne	-5731
▁bound	-5732
▁draft	-5733
▁faced	-5734
▁maria	-5735
▁split	-5736
▁allied	-5737
▁announ	-5738
▁harris	-5739
▁oregon	-5740
▁weekly	-5741
▁decline	-5742
▁olympic	-5743
▁origins	-5744
▁challeng	-5745
▁learning	-5746
▁strategy	-5747
▁reporting	-5748
▁singapore	-5749
▁maintained	-5750
fi	-5751
ami	-5752
boy	-5753
unc	-5754
omer	-5755
▁dal	-5756
▁hat	-5757
▁oak	-5758
acing	-5759
ieval	-5760
works	-5761
▁hunt	-5762
▁queb	-5763
▁soul	-5764
▁agric	-5765
▁holid	-5766
▁kings	-5767
▁types	-5768
▁bishop	-5769
▁exclus	-5770
▁images	-5771
▁injury	-5772
▁proced	-5773
▁dropped	-5774
▁grounds	-5775
▁perspect	-5776
▁tennessee	-5777
▁hypothesis	-5778
▁outstanding	-5779
▁provisional	-5780
▁philadelphia	-5781
90	-5782
nie	-5783
osh	-5784
mosp	-5785
▁las	-5786
▁tot	-5787
ecess	-5788
iling	-5789
ilton	-5790
rance	-5791
worth	-5792
▁1983	-5793
▁baby	-5794
▁spot	-5795
▁tank	-5796
▁2002.	-5797
▁bruce	-5798
▁drawn	-5799
▁insur	-5800
▁stran	-5801
▁worst	-5802
▁formal	-5803
▁motion	-5804
▁experim	-5805
▁genetic	-5806
▁injured	-5807
▁kidnapp	-5808
▁smaller	-5809
▁wounded	-5810
▁appropri	-5811
▁ceremony	-5812
▁credited	-5813
▁offering	-5814
▁definition	-5815
▁differences	-5816
ads	-5817
icip	-5818
onso	-5819
uses	-5820
▁fly	-5821
▁gur	-5822
▁rein	-5823
ieties	-5824
▁disag	-5825
▁fried	-5826
▁pilot	-5827
▁table	-5828
▁chosen	-5829
▁hockey	-5830
▁knight	-5831
▁moscow	-5832
▁quebec	-5833
▁resign	-5834
▁shared	-5835
▁stalin	-5836
▁biggest	-5837
▁concern	-5838
▁liberty	-5839
▁quickly	-5840
▁affected	-5841
▁imprison	-5842
▁candidates	-5843
▁concerning	-5844
▁enforcement	-5845
▁netherlands	-5846
▁occasionally	-5847
▁understanding	-5848
▁ny	-5849
-200	-5850
▁ice	-5851
▁lan	-5852
ength	-5853
▁1985	-5854
▁feet	-5855
▁stay	-5856
▁subs	-5857
▁tens	-5858
▁initi	-5859
▁roger	-5860
▁shock	-5861
enezuel	-5862
▁appeal	-5863
▁rating	-5864
▁refuge	-5865
▁satell	-5866
▁stores	-5867
▁videos	-5868
▁reconst	-5869
▁feminist	-5870
▁promotion	-5871
▁azerbaijan	-5872
▁indigenous	-5873
▁advertising	-5874
zy	-5875
cca	-5876
hov	-5877
ili	-5878
isa	-5879
osc	-5880
pris	-5881
rome	-5882
icial	-5883
▁demol	-5884
▁equip	-5885
▁homes	-5886
▁endors	-5887
▁fortun	-5888
▁parody	-5889
▁planet	-5890
▁severe	-5891
▁twelve	-5892
▁visual	-5893
ominated	-5894
▁ordered	-5895
▁egyptian	-5896
▁entirely	-5897
▁interact	-5898
▁medieval	-5899
▁romantic	-5900
▁otherwise	-5901
▁principal	-5902
▁criticised	-5903
▁christopher	-5904
▁politically	-5905
-3	-5906
rah	-5907
chel	-5908
enda	-5909
icop	-5910
ithu	-5911
othe	-5912
pton	-5913
term	-5914
▁abb	-5915
▁kev	-5916
▁kit	-5917
▁sle	-5918
chell	-5919
▁1968	-5920
▁curt	-5921
▁dick	-5922
▁emmy	-5923
▁emot	-5924
▁flow	-5925
▁pret	-5926
▁shel	-5927
idency	-5928
▁1999.	-5929
▁overt	-5930
▁route	-5931
▁visit	-5932
▁dating	-5933
▁marine	-5934
▁narrow	-5935
▁nearby	-5936
▁oppose	-5937
▁municip	-5938
▁saturday	-5939
▁venezuel	-5940
▁campaigns	-5941
▁economics	-5942
▁witnesses	-5943
▁proponents	-5944
▁protesters	-5945
▁supposedly	-5946
▁internationally	-5947
▁ow	-5948
feld	-5949
▁map	-5950
iders	-5951
point	-5952
using	-5953
woman	-5954
▁imag	-5955
▁karl	-5956
▁pair	-5957
▁pent	-5958
ternal	-5959
▁blues	-5960
▁equal	-5961
▁fraud	-5962
▁liver	-5963
natural	-5964
▁castro	-5965
▁luther	-5966
▁novels	-5967
▁thanks	-5968
▁housing	-5969
▁chemical	-5970
▁interests	-5971
▁significantly	-5972
").	-5973
ano	-5974
asa	-5975
may	-5976
vis	-5977
char	-5978
mont	-5979
ulpt	-5980
▁dvd	-5981
▁que	-5982
aning	-5983
hetic	-5984
▁cruc	-5985
▁gulf	-5986
ctions	-5987
▁joint	-5988
▁tibet	-5989
▁atmosp	-5990
▁needed	-5991
▁rebell	-5992
▁shakes	-5993
▁steven	-5994
heastern	-5995
▁amazing	-5996
▁install	-5997
▁remarks	-5998
▁expanded	-5999
▁finished	-6000
▁measures	-6001
▁corporate	-6002
▁hungarian	-6003
▁religions	-6004
▁secondary	-6005
▁evangelical	-6006
▁experiences	-6007
ams	-6008
bar	-6009
omy	-6010
put	-6011
▁fc	-6012
ader	-6013
fast	-6014
olph	-6015
real	-6016
▁abu	-6017
▁cad	-6018
▁sid	-6019
oured	-6020
▁calc	-6021
▁chan	-6022
▁file	-6023
▁flat	-6024
spoken	-6025
ulture	-6026
▁globe	-6027
▁write	-6028
▁decade	-6029
▁desire	-6030
▁dialect	-6031
▁zionist	-6032
▁magnific	-6033
▁abandoned	-6034
▁franchise	-6035
▁musicians	-6036
▁successor	-6037
▁electronic	-6038
▁impressive	-6039
▁references	-6040
dd	-6041
sr	-6042
bul	-6043
but	-6044
iva	-6045
oma	-6046
▁70	-6047
▁eu	-6048
▁lt	-6049
▁mp	-6050
orig	-6051
reek	-6052
rett	-6053
▁182	-6054
▁cem	-6055
▁rit	-6056
▁try	-6057
ateur	-6058
style	-6059
▁alph	-6060
▁gain	-6061
▁rain	-6062
▁ryan	-6063
▁want	-6064
cyclop	-6065
father	-6066
ussian	-6067
▁1995.	-6068
▁entry	-6069
▁griff	-6070
▁oldest	-6071
▁fascist	-6072
▁matthew	-6073
▁annivers	-6074
▁commemor	-6075
▁frequent	-6076
▁lawrence	-6077
▁lebanese	-6078
▁promoting	-6079
▁suspected	-6080
▁resolution	-6081
▁tournament	-6082
far	-6083
ito	-6084
new	-6085
onia	-6086
▁beg	-6087
▁din	-6088
▁kal	-6089
▁nam	-6090
onian	-6091
▁1967	-6092
▁bond	-6093
▁cauc	-6094
▁core	-6095
▁obsc	-6096
hentic	-6097
rehens	-6098
▁chain	-6099
▁towns	-6100
▁credit	-6101
▁incred	-6102
▁indones	-6103
▁roberts	-6104
▁campbell	-6105
▁creative	-6106
▁resigned	-6107
▁stations	-6108
▁referring	-6109
▁consisting	-6110
▁remarkable	-6111
▁scholarship	-6112
▁headquarters	-6113
je	-6114
oh	-6115
tw	-6116
oso	-6117
▁ay	-6118
anna	-6119
oles	-6120
▁1969	-6121
▁eric	-6122
▁hate	-6123
▁stor	-6124
former	-6125
▁arabs	-6126
▁cable	-6127
▁drink	-6128
▁laden	-6129
▁pover	-6130
▁quant	-6131
▁theor	-6132
▁casual	-6133
▁expert	-6134
▁persec	-6135
▁ulster	-6136
▁opposite	-6137
▁selected	-6138
▁considers	-6139
▁direction	-6140
jud	-6141
lan	-6142
ses	-6143
▁ug	-6144
amic	-6145
anny	-6146
ieth	-6147
ulty	-6148
▁cia	-6149
▁rig	-6150
▁cook	-6151
▁eyes	-6152
▁sche	-6153
▁soph	-6154
▁sust	-6155
ankind	-6156
opping	-6157
orders	-6158
▁carry	-6159
▁corps	-6160
▁divor	-6161
▁ninet	-6162
▁overw	-6163
▁storm	-6164
reprene	-6165
▁horror	-6166
▁overth	-6167
▁briefly	-6168
▁improve	-6169
rimination	-6170
▁columnist	-6171
▁equipment	-6172
▁humankind	-6173
▁metropolitan	-6174
sk	-6175
azi	-6176
iev	-6177
ila	-6178
oud	-6179
ued	-6180
▁80	-6181
aked	-6182
unch	-6183
▁rif	-6184
▁sty	-6185
attle	-6186
track	-6187
▁1979	-6188
▁bott	-6189
▁cars	-6190
▁grad	-6191
▁shah	-6192
▁sket	-6193
israel	-6194
weight	-6195
▁1994.	-6196
▁audio	-6197
▁plane	-6198
▁revel	-6199
▁steel	-6200
▁cyprus	-6201
▁gospel	-6202
▁headed	-6203
▁pieces	-6204
▁portra	-6205
▁resemb	-6206
▁sculpt	-6207
▁spokes	-6208
▁themes	-6209
▁purport	-6210
▁selling	-6211
▁wearing	-6212
▁capacity	-6213
▁concerned	-6214
▁outspoken	-6215
▁pakistani	-6216
▁affiliated	-6217
▁remembered	-6218
▁reportedly	-6219
▁anniversary	-6220
po	-6221
how	-6222
ora	-6223
zer	-6224
▁1973	-6225
▁ruth	-6226
▁enorm	-6227
▁hosts	-6228
▁limit	-6229
▁ships	-6230
▁sweet	-6231
▁colony	-6232
▁income	-6233
▁palace	-6234
▁deliber	-6235
▁advocacy	-6236
▁detailed	-6237
▁computers	-6238
▁defensive	-6239
▁dismissed	-6240
▁entreprene	-6241
▁profession	-6242
ros	-6243
mons	-6244
nell	-6245
ocks	-6246
olis	-6247
▁300	-6248
▁riv	-6249
▁bure	-6250
▁dave	-6251
▁golf	-6252
▁sail	-6253
▁slov	-6254
▁camps	-6255
▁guerr	-6256
▁kevin	-6257
▁recon	-6258
▁sides	-6259
▁solid	-6260
▁worth	-6261
ription	-6262
▁danish	-6263
▁retire	-6264
▁wright	-6265
atherine	-6266
december	-6267
▁closely	-6268
▁follows	-6269
▁helicop	-6270
▁poverty	-6271
▁anderson	-6272
▁mistaken	-6273
▁novelist	-6274
▁phenomen	-6275
▁speaking	-6276
▁presidency	-6277
▁punishment	-6278
▁restaurants	-6279
rier	-6280
▁obl	-6281
▁obv	-6282
ersey	-6283
inent	-6284
▁fals	-6285
▁kept	-6286
▁reun	-6287
▁flash	-6288
▁pregn	-6289
▁renew	-6290
ictions	-6291
▁strict	-6292
▁citizen	-6293
▁heights	-6294
▁highway	-6295
▁ongoing	-6296
▁theolog	-6297
▁vehicle	-6298
▁veteran	-6299
▁dramatic	-6300
▁hurricane	-6301
▁regularly	-6302
▁discussion	-6303
▁breathtaking	-6304
-4	-6305
ski	-6306
▁pc	-6307
endo	-6308
erts	-6309
ivan	-6310
apers	-6311
ocent	-6312
▁1919	-6313
▁bird	-6314
▁dean	-6315
▁none	-6316
▁surg	-6317
irical	-6318
▁2012.	-6319
▁aimed	-6320
▁kerry	-6321
▁lands	-6322
▁sarah	-6323
▁driver	-6324
▁supply	-6325
▁talent	-6326
▁tracks	-6327
▁vocals	-6328
speaking	-6329
▁anthrop	-6330
▁contrad	-6331
▁emerged	-6332
▁message	-6333
▁reduced	-6334
▁viewers	-6335
stitution	-6336
▁disaster	-6337
▁olympics	-6338
▁overwhel	-6339
▁shakespe	-6340
▁authentic	-6341
▁traditionally	-6342
25	-6343
bu	-6344
▁um	-6345
fare	-6346
mers	-6347
▁gab	-6348
pping	-6349
where	-6350
▁frid	-6351
▁goog	-6352
▁hans	-6353
▁trek	-6354
▁costs	-6355
▁glass	-6356
▁maxim	-6357
▁virtu	-6358
theless	-6359
▁nomine	-6360
▁retail	-6361
▁rising	-6362
▁ruling	-6363
▁unions	-6364
▁winter	-6365
▁benefit	-6366
▁hunting	-6367
▁category	-6368
▁settlers	-6369
▁ownership	-6370
▁superhero	-6371
▁magnificent	-6372
▁nevertheless	-6373
--	-6374
15	-6375
75	-6376
hl	-6377
iop	-6378
kar	-6379
nov	-6380
ayan	-6381
burn	-6382
olas	-6383
▁eye	-6384
▁hou	-6385
▁osc	-6386
▁vac	-6387
often	-6388
▁onto	-6389
▁swim	-6390
unning	-6391
▁adopt	-6392
▁cloth	-6393
▁fleet	-6394
▁funds	-6395
▁grace	-6396
▁jerry	-6397
▁siege	-6398
▁toler	-6399
▁racing	-6400
▁rivers	-6401
▁slight	-6402
▁suburb	-6403
▁walker	-6404
▁leftist	-6405
▁painter	-6406
▁visited	-6407
▁nickname	-6408
▁subjects	-6409
▁consensus	-6410
▁marketing	-6411
▁patriarch	-6412
▁selection	-6413
▁unsuccess	-6414
▁shakespeare	-6415
▁collaboration	-6416
gro	-6417
omm	-6418
tim	-6419
uts	-6420
▁uf	-6421
bian	-6422
brev	-6423
ople	-6424
▁vik	-6425
inals	-6426
order	-6427
ounds	-6428
scale	-6429
▁mail	-6430
▁peer	-6431
▁2017,	-6432
▁catch	-6433
▁loyal	-6434
▁moroc	-6435
▁panel	-6436
▁rural	-6437
▁depend	-6438
▁moment	-6439
▁really	-6440
▁taught	-6441
▁tribes	-6442
▁chamber	-6443
▁existed	-6444
▁wealthy	-6445
▁contrary	-6446
▁distance	-6447
▁suffering	-6448
▁supporter	-6449
▁recordings	-6450
▁representing	-6451
cap	-6452
▁cam	-6453
▁ian	-6454
▁nfl	-6455
▁why	-6456
alism	-6457
etery	-6458
▁1974	-6459
▁1975	-6460
▁adap	-6461
▁epic	-6462
▁gent	-6463
▁grey	-6464
▁hack	-6465
▁hope	-6466
gement	-6467
render	-6468
urally	-6469
▁2014.	-6470
▁gross	-6471
▁juris	-6472
▁rally	-6473
▁santa	-6474
▁subur	-6475
october	-6476
▁broken	-6477
▁johnny	-6478
▁landsc	-6479
▁presum	-6480
▁tennis	-6481
▁perfect	-6482
▁stereot	-6483
▁cemetery	-6484
▁cultures	-6485
▁explicit	-6486
▁satellite	-6487
▁partnership	-6488
▁programming	-6489
▁sovereignty	-6490
▁restrictions	-6491
sd	-6492
add	-6493
rif	-6494
uty	-6495
apse	-6496
ilty	-6497
▁ago	-6498
▁raj	-6499
black	-6500
qaeda	-6501
▁bowl	-6502
▁join	-6503
▁poem	-6504
▁wake	-6505
▁kelly	-6506
▁shell	-6507
▁sword	-6508
redited	-6509
▁advant	-6510
▁carbon	-6511
▁covers	-6512
▁escape	-6513
▁google	-6514
▁jersey	-6515
▁orders	-6516
▁perpet	-6517
▁coordin	-6518
▁neither	-6519
▁unusual	-6520
▁bombings	-6521
▁franklin	-6522
▁friendly	-6523
▁federation	-6524
▁perspective	-6525
▁publications	-6526
▁discrimination	-6527
▁responsibility	-6528
-9	-6529
arn	-6530
glas	-6531
rees	-6532
▁bed	-6533
▁duo	-6534
▁mck	-6535
▁ton	-6536
essed	-6537
ublin	-6538
▁1978	-6539
▁cool	-6540
▁gord	-6541
▁ment	-6542
▁mira	-6543
▁raid	-6544
▁skin	-6545
▁ties	-6546
isters	-6547
reilly	-6548
wealth	-6549
▁ghost	-6550
▁needs	-6551
▁solar	-6552
▁spoke	-6553
▁ambass	-6554
▁finals	-6555
▁rebels	-6556
▁select	-6557
iography	-6558
▁battles	-6559
▁cabinet	-6560
▁getting	-6561
▁praised	-6562
▁stewart	-6563
▁approved	-6564
▁downtown	-6565
▁engineer	-6566
▁mitchell	-6567
▁monument	-6568
▁vehicles	-6569
▁concluded	-6570
▁liberated	-6571
▁principle	-6572
▁understand	-6573
▁application	-6574
▁intervention	-6575
▁introduction	-6576
pal	-6577
▁3.	-6578
▁eg	-6579
▁ri	-6580
ogan	-6581
rose	-6582
▁fix	-6583
▁lux	-6584
▁rus	-6585
oster	-6586
▁1976	-6587
▁cher	-6588
▁ones	-6589
▁salv	-6590
▁advis	-6591
▁doing	-6592
▁lithu	-6593
▁parad	-6594
▁races	-6595
▁malays	-6596
▁skills	-6597
election	-6598
▁greatly	-6599
▁planning	-6600
▁psychiat	-6601
▁targeted	-6602
▁occasions	-6603
▁newspapers	-6604
▁journalists	-6605
▁predominantly	-6606
gs	-6607
zo	-6608
cia	-6609
▁4.	-6610
▁90	-6611
anta	-6612
rate	-6613
room	-6614
▁hud	-6615
▁meg	-6616
idden	-6617
ifest	-6618
islam	-6619
▁9/11	-6620
▁inqu	-6621
▁lank	-6622
▁mast	-6623
cision	-6624
elfare	-6625
▁alien	-6626
▁billy	-6627
▁chose	-6628
▁craft	-6629
▁essay	-6630
▁piano	-6631
▁premi	-6632
▁rates	-6633
▁spark	-6634
▁ultra	-6635
▁archae	-6636
▁dublin	-6637
▁mosque	-6638
▁philip	-6639
▁yellow	-6640
▁arrived	-6641
▁congreg	-6642
▁divided	-6643
▁element	-6644
▁measure	-6645
▁tactics	-6646
▁bulgaria	-6647
▁circumst	-6648
▁encyclop	-6649
▁existing	-6650
▁brazilian	-6651
▁celebrity	-6652
▁conscious	-6653
▁contained	-6654
▁implemented	-6655
▁overwhelming	-6656
irm	-6657
nish	-6658
path	-6659
▁nap	-6660
▁sah	-6661
▁tru	-6662
▁alab	-6663
▁lies	-6664
▁luck	-6665
▁merc	-6666
▁quot	-6667
▁tree	-6668
▁baron	-6669
▁hawai	-6670
▁pagan	-6671
▁sixth	-6672
▁alfred	-6673
▁consec	-6674
▁extent	-6675
▁voting	-6676
▁organis	-6677
▁singing	-6678
▁someone	-6679
▁killings	-6680
▁uprising	-6681
songwriter	-6682
▁observers	-6683
▁respected	-6684
▁replacement	-6685
▁photographer	-6686
▁communications	-6687
-6	-6688
gbt	-6689
itt	-6690
vez	-6691
othy	-6692
wich	-6693
▁mrs	-6694
▁ost	-6695
▁forb	-6696
▁fram	-6697
▁hits	-6698
▁rush	-6699
▁ward	-6700
▁diego	-6701
onymous	-6702
▁colleg	-6703
▁imposs	-6704
▁mobile	-6705
▁poetry	-6706
▁ritual	-6707
▁warren	-6708
▁amateur	-6709
▁cricket	-6710
▁driving	-6711
▁removal	-6712
▁targets	-6713
▁therapy	-6714
▁wallace	-6715
▁welfare	-6716
▁whereas	-6717
▁georgian	-6718
▁talented	-6719
▁cambridge	-6720
▁explained	-6721
▁louisiana	-6722
▁materials	-6723
▁commentary	-6724
▁diplomatic	-6725
▁nationalism	-6726
▁additionally	-6727
▁assassinated	-6728
▁administrative	-6729
";	-6730
ez	-6731
ho	-6732
igu	-6733
lov	-6734
▁etc	-6735
▁gor	-6736
eries	-6737
party	-6738
▁aids	-6739
▁clin	-6740
▁unif	-6741
wegian	-6742
▁autob	-6743
▁elder	-6744
▁heard	-6745
▁lawsu	-6746
▁sharp	-6747
▁taxes	-6748
issions	-6749
▁citing	-6750
▁factor	-6751
▁junior	-6752
▁martyr	-6753
▁partly	-6754
▁scheme	-6755
▁thirty	-6756
▁topics	-6757
entional	-6758
▁artific	-6759
▁roughly	-6760
▁scoring	-6761
▁surface	-6762
▁croatian	-6763
▁employed	-6764
▁millions	-6765
▁spending	-6766
▁virtuoso	-6767
▁visitors	-6768
▁liverpool	-6769
▁producing	-6770
▁sentenced	-6771
▁developing	-6772
▁confederate	-6773
▁restoration	-6774
▁commonwealth	-6775
▁concentration	-6776
aga	-6777
eph	-6778
una	-6779
publ	-6780
riet	-6781
▁179	-6782
▁biz	-6783
▁bry	-6784
▁eve	-6785
▁fru	-6786
▁lam	-6787
▁nel	-6788
▁scr	-6789
▁ted	-6790
▁wol	-6791
eping	-6792
ocrat	-6793
▁acid	-6794
▁meat	-6795
▁rick	-6796
caster	-6797
▁adams	-6798
▁bever	-6799
▁exerc	-6800
▁fresh	-6801
▁pearl	-6802
▁quran	-6803
▁welsh	-6804
issance	-6805
▁affect	-6806
▁chance	-6807
▁cinema	-6808
▁culmin	-6809
▁divine	-6810
▁incumb	-6811
▁manner	-6812
▁classes	-6813
▁creator	-6814
▁douglas	-6815
▁faculty	-6816
▁indiana	-6817
▁conquest	-6818
▁consumer	-6819
▁graduate	-6820
▁loyalist	-6821
▁rational	-6822
▁speakers	-6823
▁decisions	-6824
▁illegally	-6825
▁insurance	-6826
▁orchestra	-6827
▁presenter	-6828
▁returning	-6829
▁transform	-6830
▁wonderful	-6831
▁adaptation	-6832
▁attempting	-6833
▁entrepreneur	-6834
13	-6835
tr	-6836
adi	-6837
▁(3	-6838
▁cu	-6839
opol	-6840
▁cha	-6841
▁guy	-6842
▁spy	-6843
▁yan	-6844
eenth	-6845
ribed	-6846
stood	-6847
water	-6848
white	-6849
▁angl	-6850
▁gore	-6851
▁twin	-6852
▁warri	-6853
raction	-6854
resents	-6855
▁bosnia	-6856
▁denial	-6857
▁favour	-6858
▁adapted	-6859
▁croatia	-6860
▁focused	-6861
▁holiday	-6862
▁illness	-6863
▁seeking	-6864
▁treated	-6865
▁worship	-6866
▁earliest	-6867
▁strength	-6868
▁childhood	-6869
▁economist	-6870
▁highlight	-6871
▁expression	-6872
▁surrounded	-6873
▁effectively	-6874
▁picturesque	-6875
▁administered	-6876
▁relationships	-6877
▁P	-6878
afi	-6879
lyn	-6880
nor	-6881
▁36	-6882
▁li	-6883
cour	-6884
fall	-6885
hard	-6886
ixon	-6887
sein	-6888
this	-6889
▁buy	-6890
▁mtv	-6891
▁row	-6892
ifies	-6893
▁falk	-6894
▁fron	-6895
▁gone	-6896
▁trav	-6897
arabic	-6898
estyle	-6899
ranean	-6900
▁ahmad	-6901
▁manip	-6902
▁scale	-6903
▁agenda	-6904
▁freder	-6905
▁friday	-6906
▁height	-6907
▁judges	-6908
▁memoir	-6909
▁statue	-6910
▁termin	-6911
▁arguing	-6912
▁germans	-6913
communist	-6914
▁benefits	-6915
▁extended	-6916
▁interior	-6917
▁prolific	-6918
▁sciences	-6919
▁standing	-6920
▁behaviour	-6921
▁intention	-6922
▁locations	-6923
▁corruption	-6924
▁innovative	-6925
▁originated	-6926
▁vietnamese	-6927
▁incorrectly	-6928
oen	-6929
▁pus	-6930
▁1977	-6931
▁flaw	-6932
▁mold	-6933
▁pink	-6934
▁adolf	-6935
▁marks	-6936
▁motiv	-6937
▁rebel	-6938
▁reign	-6939
▁spons	-6940
agement	-6941
▁buried	-6942
▁camera	-6943
▁guilty	-6944
▁merely	-6945
▁torture	-6946
▁athletic	-6947
▁austrian	-6948
▁collapse	-6949
▁cancelled	-6950
▁communism	-6951
▁emergency	-6952
▁succeeded	-6953
▁businesses	-6954
▁represents	-6955
▁pornography	-6956
▁civilization	-6957
▁incorporated	-6958
▁participated	-6959
dro	-6960
eas	-6961
hal	-6962
▁hu	-6963
pson	-6964
ques	-6965
▁178	-6966
▁ceo	-6967
▁gat	-6968
▁veg	-6969
after	-6970
agger	-6971
break	-6972
eding	-6973
ulous	-6974
uster	-6975
▁clim	-6976
▁cous	-6977
▁gand	-6978
▁tast	-6979
▁wolf	-6980
common	-6981
▁coupl	-6982
▁filed	-6983
▁knock	-6984
▁punct	-6985
igation	-6986
▁deputy	-6987
▁indeed	-6988
▁rescue	-6989
▁weight	-6990
▁hungary	-6991
▁spelled	-6992
▁stanley	-6993
▁streets	-6994
christian	-6995
nominated	-6996
▁patients	-6997
▁reporter	-6998
▁romanian	-6999
▁norwegian	-7000
▁publicity	-7001
▁surrender	-7002
▁impossible	-7003
▁repeatedly	-7004
▁citizenship	-7005
imm	-7006
lar	-7007
tha	-7008
▁dc	-7009
roit	-7010
▁joy	-7011
▁lds	-7012
▁unl	-7013
allas	-7014
opped	-7015
▁aged	-7016
▁bart	-7017
▁sell	-7018
donald	-7019
herent	-7020
▁absol	-7021
▁facto	-7022
▁metap	-7023
onsored	-7024
selling	-7025
▁harass	-7026
▁hunter	-7027
▁michel	-7028
▁string	-7029
breaking	-7030
▁acclaim	-7031
▁alabama	-7032
▁alexand	-7033
▁nominee	-7034
▁speaker	-7035
▁arguably	-7036
▁broadway	-7037
▁instruct	-7038
▁opposing	-7039
▁regiment	-7040
▁restored	-7041
▁striking	-7042
▁defending	-7043
▁dictators	-7044
▁purported	-7045
▁aggressive	-7046
▁atmosphere	-7047
▁enterprise	-7048
▁passengers	-7049
▁distributed	-7050
▁acknowledged	-7051
▁broadcasting	-7052
nal	-7053
▁ps	-7054
eral	-7055
free	-7056
heid	-7057
okes	-7058
▁asc	-7059
▁pav	-7060
▁sed	-7061
▁tea	-7062
avery	-7063
ishes	-7064
lades	-7065
▁goes	-7066
▁kick	-7067
▁kiss	-7068
▁mall	-7069
▁mock	-7070
▁pool	-7071
▁sale	-7072
▁salt	-7073
▁shut	-7074
▁utah	-7075
august	-7076
wright	-7077
▁1995,	-7078
▁1996,	-7079
▁1997,	-7080
▁2013.	-7081
▁arsen	-7082
▁clark	-7083
▁crown	-7084
▁doubt	-7085
▁exped	-7086
▁lieut	-7087
▁ordin	-7088
▁proud	-7089
▁recip	-7090
▁arabia	-7091
▁device	-7092
▁gordon	-7093
▁inspir	-7094
▁murray	-7095
▁saddam	-7096
▁serial	-7097
ervative	-7098
▁detroit	-7099
▁experts	-7100
▁houston	-7101
▁looking	-7102
▁mediter	-7103
▁trinity	-7104
▁typical	-7105
▁happened	-7106
▁manifest	-7107
▁margaret	-7108
▁princess	-7109
▁banglades	-7110
▁filmmaker	-7111
▁personnel	-7112
▁rebellion	-7113
▁assistance	-7114
▁respectively	-7115
86	-7116
bel	-7117
fir	-7118
isp	-7119
mel	-7120
iban	-7121
outs	-7122
velt	-7123
enses	-7124
rible	-7125
▁logo	-7126
▁vess	-7127
▁weak	-7128
▁floor	-7129
▁repro	-7130
▁rican	-7131
▁valid	-7132
osevelt	-7133
station	-7134
▁downlo	-7135
▁achieve	-7136
▁explain	-7137
▁confront	-7138
▁emphasis	-7139
▁instance	-7140
▁solution	-7141
▁statesman	-7142
▁wrestling	-7143
▁describing	-7144
▁determined	-7145
▁legitimate	-7146
▁creationism	-7147
▁commentators	-7148
gow	-7149
▁ky	-7150
▁ll	-7151
▁ww	-7152
aman	-7153
ethe	-7154
host	-7155
july	-7156
rock	-7157
uent	-7158
▁400	-7159
▁flo	-7160
▁jay	-7161
somet	-7162
state	-7163
world	-7164
▁gary	-7165
▁glas	-7166
▁hour	-7167
▁manh	-7168
▁moss	-7169
▁vary	-7170
▁zero	-7171
▁1994,	-7172
▁baker	-7173
▁chvez	-7174
▁filip	-7175
▁horse	-7176
▁shops	-7177
▁slave	-7178
january	-7179
▁batman	-7180
▁graham	-7181
▁kansas	-7182
▁reagan	-7183
▁ronald	-7184
▁sudden	-7185
▁anthony	-7186
▁arrival	-7187
▁evolved	-7188
▁inhabit	-7189
▁slavery	-7190
▁studios	-7191
▁tourist	-7192
▁anything	-7193
▁facility	-7194
▁formally	-7195
▁robinson	-7196
▁thompson	-7197
▁thousand	-7198
▁biography	-7199
▁dominated	-7200
▁comprehens	-7201
▁retirement	-7202
▁soundtrack	-7203
▁structures	-7204
▁translated	-7205
▁fundamental	-7206
▁communication	-7207
▁mediterranean	-7208
ule	-7209
▁cd	-7210
emen	-7211
iley	-7212
▁bac	-7213
▁hem	-7214
▁unw	-7215
▁vul	-7216
hovah	-7217
piece	-7218
▁cens	-7219
▁indo	-7220
▁rout	-7221
ultane	-7222
▁cruel	-7223
▁merch	-7224
▁behalf	-7225
▁courts	-7226
▁expand	-7227
▁overlo	-7228
▁parall	-7229
▁recomm	-7230
▁slavic	-7231
atically	-7232
▁diverse	-7233
▁finnish	-7234
▁matches	-7235
▁renamed	-7236
▁trained	-7237
▁teachers	-7238
▁conflicts	-7239
▁discussed	-7240
▁extension	-7241
▁incumbent	-7242
▁literally	-7243
▁northwest	-7244
▁roosevelt	-7245
▁simultane	-7246
▁southeast	-7247
▁autonomous	-7248
▁developers	-7249
▁footballer	-7250
▁psychology	-7251
▁researchers	-7252
uv	-7253
iga	-7254
you	-7255
▁).	-7256
▁0.	-7257
▁ot	-7258
dale	-7259
raph	-7260
▁eag	-7261
▁ecc	-7262
▁ing	-7263
▁isa	-7264
▁len	-7265
▁pon	-7266
▁ral	-7267
april	-7268
arthy	-7269
iants	-7270
ighth	-7271
orial	-7272
osaur	-7273
rough	-7274
teneg	-7275
▁boat	-7276
▁cant	-7277
▁cass	-7278
▁cert	-7279
▁clar	-7280
▁coff	-7281
▁jenn	-7282
▁nint	-7283
▁thor	-7284
▁vinc	-7285
▁keith	-7286
▁recre	-7287
▁rever	-7288
▁avenue	-7289
▁corner	-7290
▁devast	-7291
▁enthus	-7292
▁expect	-7293
▁extens	-7294
▁grammy	-7295
▁parent	-7296
▁render	-7297
▁trials	-7298
november	-7299
▁assumed	-7300
▁charlie	-7301
▁hussein	-7302
▁pointed	-7303
▁ratings	-7304
▁seventh	-7305
▁testing	-7306
▁accurate	-7307
▁hinduism	-7308
▁identify	-7309
▁improved	-7310
▁villages	-7311
▁argentine	-7312
▁converted	-7313
▁magazines	-7314
▁maintains	-7315
▁passenger	-7316
▁continuing	-7317
▁importance	-7318
▁lieutenant	-7319
▁philippines	-7320
▁circumcision	-7321
▁technologies	-7322
201	-7323
alu	-7324
cup	-7325
gam	-7326
oys	-7327
▁gi	-7328
mill	-7329
mine	-7330
osis	-7331
▁hav	-7332
▁hob	-7333
▁kah	-7334
▁nas	-7335
▁fled	-7336
▁gray	-7337
ducing	-7338
nesota	-7339
tering	-7340
▁check	-7341
▁conan	-7342
▁notes	-7343
▁photo	-7344
▁texts	-7345
▁dallas	-7346
▁exists	-7347
▁potter	-7348
▁queens	-7349
▁resort	-7350
▁finance	-7351
▁imposed	-7352
▁learned	-7353
▁objects	-7354
▁readers	-7355
▁reforms	-7356
▁landmark	-7357
▁obtained	-7358
▁memorable	-7359
▁circumstances	-7360
di	-7361
aug	-7362
cha	-7363
hop	-7364
phe	-7365
sky	-7366
acht	-7367
alia	-7368
azar	-7369
ears	-7370
iami	-7371
inth	-7372
otte	-7373
owed	-7374
▁nut	-7375
▁pov	-7376
▁raf	-7377
▁vat	-7378
astro	-7379
etime	-7380
inist	-7381
march	-7382
ringe	-7383
▁1945	-7384
▁cock	-7385
▁copy	-7386
▁diam	-7387
▁isol	-7388
▁scar	-7389
▁shir	-7390
▁sull	-7391
▁tell	-7392
atures	-7393
▁1997.	-7394
▁famed	-7395
▁fidel	-7396
▁guide	-7397
▁larry	-7398
▁leads	-7399
▁raise	-7400
▁shape	-7401
rations	-7402
▁anyone	-7403
▁blacks	-7404
▁charts	-7405
▁errone	-7406
▁heaven	-7407
▁nelson	-7408
▁norman	-7409
▁openly	-7410
▁unable	-7411
▁austria	-7412
▁harvard	-7413
▁journey	-7414
▁attitude	-7415
▁bringing	-7416
▁nintendo	-7417
▁painting	-7418
▁formation	-7419
▁instrumental	-7420
hu	-7421
bac	-7422
iti	-7423
iya	-7424
mal	-7425
abet	-7426
arre	-7427
best	-7428
emed	-7429
isms	-7430
oons	-7431
oved	-7432
race	-7433
spec	-7434
udes	-7435
yers	-7436
▁arc	-7437
▁dim	-7438
hered	-7439
icing	-7440
▁enab	-7441
▁jama	-7442
▁sang	-7443
consin	-7444
hedral	-7445
ulsion	-7446
▁1998,	-7447
▁irgun	-7448
▁encoun	-7449
▁ethiop	-7450
▁harbor	-7451
▁orient	-7452
▁shield	-7453
▁weapon	-7454
▁equival	-7455
▁formula	-7456
▁lesbian	-7457
▁prisoner	-7458
▁pseudosc	-7459
▁purchase	-7460
▁minnesota	-7461
▁partially	-7462
▁ambassador	-7463
▁artificial	-7464
▁biological	-7465
▁practition	-7466
-7	-7467
16	-7468
3%	-7469
mo	-7470
tor	-7471
▁sr	-7472
ardo	-7473
ouri	-7474
prof	-7475
that	-7476
▁eat	-7477
▁fbi	-7478
▁hij	-7479
▁rod	-7480
night	-7481
▁(193	-7482
▁1966	-7483
▁anch	-7484
▁belg	-7485
▁cole	-7486
▁easy	-7487
▁mars	-7488
▁masc	-7489
▁vent	-7490
terror	-7491
▁1989,	-7492
▁1996.	-7493
▁1998.	-7494
▁barry	-7495
▁delay	-7496
▁happy	-7497
▁miami	-7498
▁seats	-7499
▁stood	-7500
▁terry	-7501
▁thing	-7502
▁waste	-7503
anthrop	-7504
founder	-7505
▁agents	-7506
▁caught	-7507
▁finish	-7508
▁rachel	-7509
▁surviv	-7510
▁baptist	-7511
▁designs	-7512
▁drummer	-7513
▁evening	-7514
▁offices	-7515
▁physics	-7516
▁session	-7517
▁agencies	-7518
▁covering	-7519
▁defended	-7520
▁injuries	-7521
▁opponent	-7522
▁petition	-7523
▁ultimate	-7524
▁unionist	-7525
▁attacking	-7526
▁incidents	-7527
▁narrative	-7528
▁purchased	-7529
▁phenomenon	-7530
▁playwright	-7531
▁distinctive	-7532
▁productions	-7533
▁regulations	-7534
▁implementation	-7535
oa	-7536
abis	-7537
mate	-7538
tier	-7539
▁sod	-7540
▁tag	-7541
▁andy	-7542
▁chen	-7543
▁coul	-7544
▁duty	-7545
▁shop	-7546
▁1991,	-7547
▁males	-7548
▁riots	-7549
▁brutal	-7550
▁caucas	-7551
▁deploy	-7552
▁patent	-7553
▁plants	-7554
▁tenure	-7555
▁useful	-7556
▁volume	-7557
ordinary	-7558
▁compens	-7559
▁longest	-7560
▁marxist	-7561
▁tribute	-7562
▁willing	-7563
▁purposes	-7564
▁paintings	-7565
▁scheduled	-7566
▁scripture	-7567
▁societies	-7568
▁wisconsin	-7569
▁disappoint	-7570
▁documented	-7571
▁eliminated	-7572
▁ironically	-7573
▁fortunately	-7574
▁dictatorship	-7575
▁parliamentary	-7576
▁psychological	-7577
12	-7578
CT	-7579
kk	-7580
lah	-7581
oyd	-7582
sea	-7583
▁ka	-7584
▁tu	-7585
UNCT	-7586
arms	-7587
cock	-7588
left	-7589
vant	-7590
▁fet	-7591
▁gif	-7592
▁gon	-7593
▁ine	-7594
▁nev	-7595
▁shi	-7596
▁tig	-7597
▁bron	-7598
▁fish	-7599
▁juan	-7600
▁kenn	-7601
▁lane	-7602
▁prix	-7603
▁1945,	-7604
▁PUNCT	-7605
▁admir	-7606
▁banks	-7607
▁exile	-7608
▁phill	-7609
▁seems	-7610
▁susan	-7611
▁tells	-7612
general	-7613
▁butler	-7614
▁edited	-7615
▁ranked	-7616
▁summit	-7617
▁survey	-7618
▁unfair	-7619
although	-7620
▁automob	-7621
▁charity	-7622
▁courses	-7623
▁devoted	-7624
▁helping	-7625
▁monitor	-7626
▁russell	-7627
▁settled	-7628
▁warfare	-7629
breviated	-7630
prisingly	-7631
▁asserted	-7632
▁breaking	-7633
▁crossing	-7634
▁emerging	-7635
▁mccarthy	-7636
▁moderate	-7637
▁proposal	-7638
▁sentence	-7639
▁websites	-7640
▁connected	-7641
▁acceptance	-7642
▁comparison	-7643
▁experiment	-7644
▁recognised	-7645
▁accompanied	-7646
▁descendants	-7647
▁furthermore	-7648
▁inhabitants	-7649
▁legislative	-7650
▁opportunity	-7651
bat	-7652
atri	-7653
pres	-7654
▁avo	-7655
acked	-7656
uracy	-7657
▁beng	-7658
▁cash	-7659
▁door	-7660
▁pant	-7661
▁sets	-7662
▁coinc	-7663
▁exact	-7664
▁facts	-7665
▁reich	-7666
▁apolog	-7667
▁battal	-7668
▁filled	-7669
▁guests	-7670
▁legacy	-7671
▁notion	-7672
▁tradem	-7673
▁verses	-7674
▁barbara	-7675
▁dollars	-7676
▁kurdish	-7677
▁opposes	-7678
▁portion	-7679
▁revival	-7680
▁disorder	-7681
▁marshall	-7682
▁monteneg	-7683
▁observed	-7684
▁redirect	-7685
▁associate	-7686
▁cathedral	-7687
▁defeating	-7688
▁expensive	-7689
▁notoriety	-7690
▁twentieth	-7691
▁criticisms	-7692
dog	-7693
idi	-7694
iph	-7695
owa	-7696
sis	-7697
▁mi	-7698
hand	-7699
icut	-7700
idal	-7701
▁ble	-7702
▁cav	-7703
▁dir	-7704
▁nba	-7705
attan	-7706
▁1956	-7707
▁1958	-7708
▁chel	-7709
▁dogs	-7710
▁edge	-7711
▁hors	-7712
▁icon	-7713
▁idol	-7714
▁lang	-7715
▁toll	-7716
▁wins	-7717
rators	-7718
▁agree	-7719
▁enact	-7720
▁marie	-7721
▁osama	-7722
▁oscar	-7723
▁quiet	-7724
▁roots	-7725
▁semin	-7726
▁treas	-7727
▁wheel	-7728
▁basque	-7729
▁gandhi	-7730
▁infant	-7731
▁invent	-7732
▁jurisd	-7733
▁morris	-7734
▁peters	-7735
▁sketch	-7736
▁struck	-7737
▁traged	-7738
▁gallery	-7739
▁markets	-7740
▁militia	-7741
▁millenn	-7742
▁playoff	-7743
▁seconds	-7744
▁stevens	-7745
sometimes	-7746
▁clothing	-7747
▁dominant	-7748
▁machines	-7749
▁refugees	-7750
▁vocalist	-7751
government	-7752
▁gradually	-7753
▁conversion	-7754
▁difference	-7755
▁prominence	-7756
▁explanation	-7757
▁demonstrated	-7758
-8	-7759
ils	-7760
ails	-7761
anti	-7762
icas	-7763
odus	-7764
▁adm	-7765
▁bag	-7766
▁haz	-7767
▁pip	-7768
▁vit	-7769
umber	-7770
▁2017	-7771
▁stol	-7772
▁tool	-7773
▁andre	-7774
▁bombs	-7775
▁dates	-7776
▁harsh	-7777
▁hyper	-7778
▁inher	-7779
▁popul	-7780
▁prove	-7781
neutral	-7782
▁abroad	-7783
▁begins	-7784
▁miscon	-7785
ientific	-7786
▁centers	-7787
▁colonel	-7788
▁depicted	-7789
▁humorous	-7790
▁innocent	-7791
▁interpre	-7792
▁prompted	-7793
▁departure	-7794
▁exception	-7795
▁solutions	-7796
▁volunteer	-7797
▁connections	-7798
▁unsuccessful	-7799
▁denominations	-7800
li	-7801
bin	-7802
ele	-7803
gay	-7804
jun	-7805
non	-7806
ache	-7807
elle	-7808
lord	-7809
ollo	-7810
▁asp	-7811
▁caf	-7812
▁coc	-7813
▁idf	-7814
▁kra	-7815
▁tap	-7816
aders	-7817
ormal	-7818
▁1946	-7819
▁1965	-7820
▁drop	-7821
▁gren	-7822
▁herz	-7823
▁josh	-7824
▁plus	-7825
▁sinn	-7826
▁stem	-7827
▁todd	-7828
▁tril	-7829
▁yout	-7830
▁1992,	-7831
▁ahmed	-7832
▁canal	-7833
▁falls	-7834
▁inacc	-7835
▁moham	-7836
▁phone	-7837
▁serge	-7838
▁veget	-7839
▁wayne	-7840
rection	-7841
▁afford	-7842
▁assess	-7843
▁athlet	-7844
▁census	-7845
▁filmed	-7846
▁harmon	-7847
▁rocket	-7848
▁scenic	-7849
▁soccer	-7850
▁synthe	-7851
aissance	-7852
▁dealing	-7853
▁finding	-7854
▁funeral	-7855
▁hostile	-7856
▁mystery	-7857
▁passage	-7858
▁retreat	-7859
▁strikes	-7860
unciation	-7861
ifications	-7862
ographical	-7863
▁delivered	-7864
▁seriously	-7865
▁annexation	-7866
▁capitalism	-7867
▁challenged	-7868
▁succession	-7869
▁withdrawal	-7870
▁connecticut	-7871
▁consecutive	-7872
▁populations	-7873
23	-7874
ng	-7875
aria	-7876
four	-7877
imir	-7878
oric	-7879
▁hut	-7880
▁toy	-7881
oenix	-7882
osely	-7883
osing	-7884
▁1963	-7885
▁anat	-7886
▁gene	-7887
▁vlad	-7888
▁wish	-7889
istent	-7890
itudes	-7891
▁clean	-7892
▁hilar	-7893
ructure	-7894
▁adding	-7895
▁answer	-7896
▁coined	-7897
▁engage	-7898
▁lasted	-7899
▁myster	-7900
▁shadow	-7901
▁factors	-7902
▁invaded	-7903
▁jehovah	-7904
▁legally	-7905
▁license	-7906
▁declined	-7907
▁entering	-7908
▁expelled	-7909
▁networks	-7910
▁relation	-7911
▁fantastic	-7912
▁industries	-7913
▁separatist	-7914
▁threatened	-7915
▁constructed	-7916
▁philanthrop	-7917
▁substantial	-7918
▁reconstruction	-7919
▁transportation	-7920
dad	-7921
jew	-7922
anne	-7923
cott	-7924
inct	-7925
long	-7926
wick	-7927
zona	-7928
▁hbo	-7929
▁kaz	-7930
▁lau	-7931
▁vel	-7932
▁yog	-7933
arant	-7934
ubbed	-7935
▁1949	-7936
▁ages	-7937
▁aims	-7938
▁beck	-7939
▁brun	-7940
▁fifa	-7941
▁gill	-7942
▁jobs	-7943
▁kath	-7944
▁lgbt	-7945
▁lucy	-7946
▁rico	-7947
▁riot	-7948
▁unix	-7949
▁wave	-7950
▁1993.	-7951
▁creek	-7952
▁dress	-7953
▁elite	-7954
▁nazis	-7955
▁neuro	-7956
▁smart	-7957
▁tests	-7958
essions	-7959
▁dragon	-7960
▁madrid	-7961
▁margin	-7962
▁minute	-7963
▁oliver	-7964
▁parish	-7965
▁samuel	-7966
▁arizona	-7967
▁beaches	-7968
▁beating	-7969
▁becomes	-7970
▁charter	-7971
▁finland	-7972
▁glasgow	-7973
▁invited	-7974
▁mississ	-7975
▁ranging	-7976
▁visible	-7977
▁missouri	-7978
▁reaching	-7979
▁adherents	-7980
▁advantage	-7981
▁frederick	-7982
▁guerrilla	-7983
▁lifestyle	-7984
▁melbourne	-7985
▁reception	-7986
▁helicopter	-7987
▁properties	-7988
▁mathematics	-7989
▁nationalists	-7990
▁screenwriter	-7991
▁representation	-7992
hy	-7993
vo	-7994
len	-7995
ayer	-7996
fund	-7997
made	-7998
▁180	-7999
▁mes	-8000
5,000	-8001
grade	-8002
inces	-8003
level	-8004
▁brah	-8005
▁hood	-8006
▁pupp	-8007
▁rebu	-8008
muslim	-8009
strong	-8010
▁mouth	-8011
▁noble	-8012
▁saved	-8013
▁seeks	-8014
▁stret	-8015
▁circle	-8016
▁desert	-8017
▁noting	-8018
▁prayer	-8019
▁theore	-8020
▁triple	-8021
▁counsel	-8022
▁devices	-8023
▁editors	-8024
▁falsely	-8025
▁fishing	-8026
▁indians	-8027
▁joining	-8028
▁murders	-8029
▁outlets	-8030
abilities	-8031
▁accuracy	-8032
▁cannabis	-8033
▁involves	-8034
▁syndrome	-8035
▁reduction	-8036
▁apparently	-8037
▁casualties	-8038
▁mathematic	-8039
▁theatrical	-8040
14	-8041
ml	-8042
}}	-8043
-18	-8044
alo	-8045
gie	-8046
ige	-8047
jac	-8048
oli	-8049
rum	-8050
dest	-8051
enge	-8052
iner	-8053
pron	-8054
▁(17	-8055
▁bid	-8056
▁dil	-8057
▁jet	-8058
▁tol	-8059
▁vic	-8060
areth	-8061
front	-8062
human	-8063
nings	-8064
▁(194	-8065
▁anna	-8066
▁atom	-8067
▁barn	-8068
▁buff	-8069
▁denn	-8070
▁hubb	-8071
▁lock	-8072
▁mixt	-8073
▁orle	-8074
▁pale	-8075
▁task	-8076
olshev	-8077
▁2015.	-8078
▁cards	-8079
▁delhi	-8080
▁finds	-8081
▁habit	-8082
▁inner	-8083
▁nixon	-8084
▁ridic	-8085
▁shore	-8086
▁sunni	-8087
▁vegas	-8088
popular	-8089
ulating	-8090
▁aborig	-8091
▁gather	-8092
▁leaves	-8093
▁losses	-8094
▁option	-8095
▁preced	-8096
▁unrest	-8097
february	-8098
▁arsenal	-8099
▁borough	-8100
▁diamond	-8101
▁enemies	-8102
▁sisters	-8103
▁transit	-8104
itzerland	-8105
▁actively	-8106
▁governed	-8107
▁liberals	-8108
▁modified	-8109
▁peaceful	-8110
▁electoral	-8111
▁jefferson	-8112
▁manhattan	-8113
▁nicknamed	-8114
▁organised	-8115
▁southwest	-8116
▁stereotyp	-8117
▁challenges	-8118
▁perception	-8119
▁questioned	-8120
▁transition	-8121
▁volunteers	-8122
▁possibility	-8123
▁quarterback	-8124
▁renaissance	-8125
▁organisations	-8126
agu	-8127
aks	-8128
arr	-8129
urd	-8130
xic	-8131
▁ss	-8132
▁vs	-8133
anic	-8134
ante	-8135
oker	-8136
▁150	-8137
▁els	-8138
▁gam	-8139
▁vig	-8140
rimin	-8141
▁1961	-8142
▁abst	-8143
▁cuts	-8144
▁guru	-8145
▁safe	-8146
▁suit	-8147
▁trip	-8148
keeper	-8149
market	-8150
rating	-8151
▁chick	-8152
▁giant	-8153
▁hence	-8154
▁pitts	-8155
▁swiss	-8156
▁trend	-8157
▁disgra	-8158
▁norway	-8159
▁stolen	-8160
▁waters	-8161
▁worker	-8162
▁writes	-8163
mination	-8164
▁bernard	-8165
▁deliver	-8166
▁drawing	-8167
▁infrast	-8168
▁monarch	-8169
▁advertis	-8170
▁artistic	-8171
▁changing	-8172
▁presents	-8173
▁anarchist	-8174
▁apartment	-8175
▁initiated	-8176
▁neighbour	-8177
▁venezuela	-8178
▁virtually	-8179
▁equivalent	-8180
▁investment	-8181
▁registered	-8182
▁discredited	-8183
▁participation	-8184
uz	-8185
199	-8186
aco	-8187
bra	-8188
fam	-8189
fia	-8190
imp	-8191
oto	-8192
ulk	-8193
uma	-8194
egov	-8195
eing	-8196
euro	-8197
june	-8198
lock	-8199
pers	-8200
rele	-8201
▁bug	-8202
▁hiv	-8203
▁mul	-8204
▁oss	-8205
▁pel	-8206
▁spr	-8207
eline	-8208
gradu	-8209
odore	-8210
▁(189	-8211
▁1944	-8212
▁1947	-8213
▁clay	-8214
▁corp	-8215
▁ends	-8216
▁rhod	-8217
▁rice	-8218
▁wine	-8219
master	-8220
teenth	-8221
▁antis	-8222
▁craig	-8223
▁hydro	-8224
▁tools	-8225
present	-8226
written	-8227
▁angels	-8228
▁carlos	-8229
▁choose	-8230
▁coffee	-8231
▁fringe	-8232
▁latest	-8233
▁length	-8234
▁rivals	-8235
national	-8236
▁asserts	-8237
▁bassist	-8238
▁beloved	-8239
▁birming	-8240
▁brigade	-8241
▁edwards	-8242
▁gardens	-8243
▁missing	-8244
▁orleans	-8245
▁patient	-8246
▁recount	-8247
▁segment	-8248
▁surgery	-8249
▁youtube	-8250
▁airlines	-8251
▁concepts	-8252
▁everyone	-8253
▁shopping	-8254
▁animation	-8255
▁apartheid	-8256
▁audiences	-8257
▁practical	-8258
▁depression	-8259
▁incredible	-8260
▁violations	-8261
▁competitive	-8262
▁maintaining	-8263
▁residential	-8264
▁congressional	-8265
▁extraordinary	-8266
17	-8267
cor	-8268
ois	-8269
▁si	-8270
nazi	-8271
uter	-8272
▁cod	-8273
▁eta	-8274
encer	-8275
occup	-8276
▁bare	-8277
▁cave	-8278
▁desk	-8279
▁flav	-8280
▁gran	-8281
▁heat	-8282
▁knew	-8283
▁lamb	-8284
▁pros	-8285
orient	-8286
▁blair	-8287
▁capit	-8288
▁eugen	-8289
▁fatal	-8290
▁foods	-8291
▁turks	-8292
agonist	-8293
capital	-8294
▁beings	-8295
▁elabor	-8296
▁photos	-8297
▁remote	-8298
▁balance	-8299
▁graphic	-8300
▁phoenix	-8301
▁pianist	-8302
▁preserv	-8303
▁pronoun	-8304
▁taliban	-8305
▁slightly	-8306
▁sporting	-8307
▁thatcher	-8308
▁thinking	-8309
▁apostolic	-8310
▁estimates	-8311
▁predecess	-8312
▁satirical	-8313
▁occasional	-8314
▁continental	-8315
▁contribution	-8316
▁autobiography	-8317
▁infrastructure	-8318
ER	-8319
▁V	-8320
ERB	-8321
aro	-8322
aux	-8323
dem	-8324
mor	-8325
▁5.	-8326
abad	-8327
anim	-8328
game	-8329
heim	-8330
ippi	-8331
orno	-8332
post	-8333
rina	-8334
▁aqu	-8335
▁bic	-8336
▁bit	-8337
▁liv	-8338
▁sax	-8339
ocons	-8340
while	-8341
▁1957	-8342
▁VERB	-8343
▁forg	-8344
▁glen	-8345
▁goth	-8346
▁hamp	-8347
▁horn	-8348
▁pill	-8349
▁sikh	-8350
▁surf	-8351
▁vacc	-8352
▁vand	-8353
▁1993,	-8354
▁chand	-8355
▁crack	-8356
▁symph	-8357
▁traff	-8358
▁trees	-8359
egovina	-8360
ophobia	-8361
▁beaten	-8362
▁cousin	-8363
▁fisher	-8364
▁hispan	-8365
▁medium	-8366
▁secure	-8367
▁switch	-8368
▁annexed	-8369
▁cutting	-8370
▁editing	-8371
▁faction	-8372
▁hubbard	-8373
▁proceed	-8374
▁rangers	-8375
▁substit	-8376
▁diplomat	-8377
▁filipino	-8378
▁firearms	-8379
▁prepared	-8380
▁consisted	-8381
▁graduated	-8382
▁platforms	-8383
▁bangladesh	-8384
▁birmingham	-8385
▁missionary	-8386
▁revelation	-8387
▁congressman	-8388
▁essentially	-8389
▁playstation	-8390
bed	-8391
cou	-8392
esp	-8393
gon	-8394
▁45	-8395
umin	-8396
▁kay	-8397
▁kin	-8398
▁raw	-8399
▁unn	-8400
comed	-8401
illed	-8402
nered	-8403
ullah	-8404
▁gods	-8405
▁hang	-8406
▁jung	-8407
icking	-8408
▁anglo	-8409
▁aware	-8410
▁begun	-8411
▁compr	-8412
▁leeds	-8413
▁manus	-8414
▁ruler	-8415
▁simpl	-8416
▁trace	-8417
istical	-8418
iveness	-8419
▁exodus	-8420
▁mccain	-8421
▁rapper	-8422
▁riding	-8423
▁sevent	-8424
▁submar	-8425
▁troubl	-8426
▁coulter	-8427
▁coveted	-8428
▁degrees	-8429
▁denmark	-8430
▁martial	-8431
▁obvious	-8432
▁printed	-8433
▁alleging	-8434
▁meetings	-8435
▁veterans	-8436
▁detention	-8437
▁naturally	-8438
▁separated	-8439
▁imprisoned	-8440
▁supernatural	-8441
▁surprisingly	-8442
4%	-8443
bn	-8444
dp	-8445
acu	-8446
bri	-8447
gel	-8448
mud	-8449
olo	-8450
san	-8451
tan	-8452
▁ye	-8453
geon	-8454
oust	-8455
zant	-8456
▁fee	-8457
▁lap	-8458
▁pas	-8459
▁pod	-8460
▁sic	-8461
agues	-8462
▁1964	-8463
▁amid	-8464
▁auto	-8465
▁bagh	-8466
▁bars	-8467
▁didn	-8468
▁doub	-8469
▁godd	-8470
▁iowa	-8471
▁jail	-8472
▁kate	-8473
▁prox	-8474
▁1986,	-8475
▁1992.	-8476
▁abdul	-8477
▁ahead	-8478
▁babyl	-8479
▁forth	-8480
▁helen	-8481
▁inaug	-8482
▁lists	-8483
▁pages	-8484
▁paran	-8485
▁petro	-8486
▁rhyth	-8487
▁stern	-8488
amation	-8489
through	-8490
▁blamed	-8491
▁bright	-8492
▁closer	-8493
▁ethics	-8494
▁hadith	-8495
▁harold	-8496
▁nevada	-8497
▁parker	-8498
▁psycho	-8499
▁reserv	-8500
▁belgium	-8501
▁bizarre	-8502
▁bolshev	-8503
▁doctors	-8504
▁failing	-8505
▁landing	-8506
▁pioneer	-8507
▁secured	-8508
▁stopped	-8509
september	-8510
▁brooklyn	-8511
▁confused	-8512
▁electron	-8513
▁hamilton	-8514
▁nicholas	-8515
▁opinions	-8516
▁battalion	-8517
▁billboard	-8518
▁finishing	-8519
▁generated	-8520
▁immediate	-8521
▁kurdistan	-8522
▁sexuality	-8523
▁collective	-8524
▁everything	-8525
▁influences	-8526
▁portraying	-8527
▁theologian	-8528
▁commercials	-8529
▁consequence	-8530
▁experiments	-8531
▁inspiration	-8532
▁photographs	-8533
▁switzerland	-8534
▁consistently	-8535
▁comprehensive	-8536
bj	-8537
amo	-8538
bec	-8539
dev	-8540
god	-8541
izz	-8542
▁py	-8543
uana	-8544
▁mam	-8545
▁nan	-8546
▁por	-8547
▁shr	-8548
ested	-8549
owski	-8550
▁1954	-8551
▁cran	-8552
▁reed	-8553
▁sony	-8554
▁sung	-8555
▁trop	-8556
encing	-8557
making	-8558
rolled	-8559
▁alive	-8560
▁arose	-8561
▁goods	-8562
▁linda	-8563
▁proof	-8564
▁stead	-8565
▁sugar	-8566
▁tribe	-8567
ocation	-8568
russian	-8569
▁explor	-8570
▁warner	-8571
▁albania	-8572
▁borders	-8573
▁capable	-8574
▁chechen	-8575
▁closing	-8576
▁comfort	-8577
▁genital	-8578
▁passion	-8579
▁romance	-8580
▁seattle	-8581
▁seminal	-8582
▁signing	-8583
▁endorsed	-8584
▁entrance	-8585
▁inherent	-8586
▁promised	-8587
▁spelling	-8588
pronounced	-8589
▁assistant	-8590
▁continent	-8591
▁developer	-8592
▁household	-8593
▁socialism	-8594
▁manuscript	-8595
▁persecution	-8596
▁characteristics	-8597
jah	-8598
▁(4	-8599
▁ub	-8600
▁ue	-8601
agen	-8602
drew	-8603
ener	-8604
enna	-8605
foot	-8606
pean	-8607
rete	-8608
ucky	-8609
▁amy	-8610
▁bou	-8611
▁cnn	-8612
▁dat	-8613
▁doz	-8614
▁ibm	-8615
▁lem	-8616
▁prc	-8617
▁stu	-8618
there	-8619
ymond	-8620
▁1941	-8621
▁1943	-8622
▁dawn	-8623
▁hend	-8624
▁nash	-8625
▁nurs	-8626
igible	-8627
modern	-8628
season	-8629
▁1945.	-8630
▁1982,	-8631
▁1983,	-8632
▁arist	-8633
▁aston	-8634
▁bases	-8635
▁clock	-8636
▁evacu	-8637
▁hired	-8638
▁items	-8639
▁pitch	-8640
▁pleas	-8641
▁theft	-8642
▁venue	-8643
▁apollo	-8644
▁bought	-8645
▁bureau	-8646
▁caliph	-8647
▁clergy	-8648
▁deemed	-8649
▁franco	-8650
▁funded	-8651
▁hudson	-8652
▁munich	-8653
▁papers	-8654
▁relief	-8655
▁seemed	-8656
▁sounds	-8657
▁turner	-8658
▁fortune	-8659
▁mandate	-8660
▁outrage	-8661
▁raymond	-8662
▁tourism	-8663
▁tragedy	-8664
▁trilogy	-8665
▁americas	-8666
▁colorado	-8667
▁maryland	-8668
▁revision	-8669
▁stunning	-8670
▁sullivan	-8671
▁textbook	-8672
▁upcoming	-8673
▁catherine	-8674
▁confusion	-8675
▁contested	-8676
▁interface	-8677
▁northeast	-8678
▁strategic	-8679
▁violation	-8680
▁complaints	-8681
▁pronounced	-8682
▁agricultural	-8683
▁psychologist	-8684
▁consciousness	-8685
mi	-8686
fil	-8687
jpg	-8688
oes	-8689
uan	-8690
▁nu	-8691
away	-8692
core	-8693
wald	-8694
word	-8695
▁arn	-8696
▁gig	-8697
▁lav	-8698
▁nad	-8699
▁spo	-8700
▁balk	-8701
▁bour	-8702
▁cycl	-8703
▁dame	-8704
▁fier	-8705
▁kiev	-8706
▁maur	-8707
▁valu	-8708
▁decor	-8709
▁discl	-8710
▁flour	-8711
▁heter	-8712
▁nobel	-8713
▁persu	-8714
areness	-8715
▁bloody	-8716
▁celtic	-8717
▁discip	-8718
▁dubbed	-8719
▁intens	-8720
▁neighb	-8721
▁praise	-8722
▁antisem	-8723
▁circuit	-8724
▁forming	-8725
▁messiah	-8726
▁twitter	-8727
▁colleges	-8728
▁compound	-8729
▁promotes	-8730
▁relative	-8731
▁attitudes	-8732
▁practiced	-8733
▁attraction	-8734
▁consistent	-8735
▁nationwide	-8736
▁criticizing	-8737
▁orientation	-8738
▁settlements	-8739
▁accomplished	-8740
▁evolutionary	-8741
▁simultaneously	-8742
1%	-8743
26	-8744
9%	-8745
cs	-8746
nc	-8747
0),	-8748
198	-8749
aki	-8750
bet	-8751
ped	-8752
yll	-8753
▁$2	-8754
▁52	-8755
▁cp	-8756
▁sv	-8757
held	-8758
ihad	-8759
onna	-8760
tery	-8761
umes	-8762
▁bot	-8763
▁jen	-8764
▁odd	-8765
▁sha	-8766
armed	-8767
baugh	-8768
icate	-8769
icism	-8770
organ	-8771
▁(195	-8772
▁bent	-8773
▁cron	-8774
▁foss	-8775
▁glor	-8776
▁nice	-8777
▁tone	-8778
▁util	-8779
castle	-8780
lahoma	-8781
rupted	-8782
▁1957)	-8783
▁1990.	-8784
▁1991.	-8785
▁decre	-8786
▁devot	-8787
▁diana	-8788
▁exter	-8789
▁guild	-8790
▁learn	-8791
▁signs	-8792
▁steps	-8793
▁sympt	-8794
▁tanks	-8795
▁uncle	-8796
▁verse	-8797
▁byzant	-8798
▁cancel	-8799
▁detain	-8800
▁eugene	-8801
▁facing	-8802
▁hawaii	-8803
▁heroes	-8804
▁louise	-8805
▁plural	-8806
▁seized	-8807
▁stones	-8808
▁testim	-8809
graduate	-8810
▁collins	-8811
▁demands	-8812
▁donated	-8813
▁equally	-8814
▁guarant	-8815
▁hillary	-8816
▁intense	-8817
▁kilomet	-8818
▁leonard	-8819
▁reverse	-8820
▁rolling	-8821
▁adoption	-8822
▁carrying	-8823
▁jonathan	-8824
▁ordinary	-8825
▁outbreak	-8826
▁relating	-8827
▁tensions	-8828
▁producers	-8829
▁afterwards	-8830
▁encouraged	-8831
▁expedition	-8832
▁initiative	-8833
▁montenegro	-8834
▁understood	-8835
▁broadcaster	-8836
▁destination	-8837
▁herzegovina	-8838
▁illustrated	-8839
▁interpreted	-8840
▁conservation	-8841
8%	-8842
eo	-8843
abe	-8844
pur	-8845
▁iq	-8846
ansk	-8847
assy	-8848
hour	-8849
rons	-8850
▁bce	-8851
▁bil	-8852
▁pad	-8853
arded	-8854
bacco	-8855
first	-8856
insky	-8857
▁apoc	-8858
▁milk	-8859
▁nato	-8860
▁plag	-8861
apters	-8862
ewhere	-8863
ijuana	-8864
untary	-8865
▁anthe	-8866
▁basil	-8867
▁brows	-8868
▁marty	-8869
▁resur	-8870
compass	-8871
▁colour	-8872
▁danger	-8873
▁eleven	-8874
▁prices	-8875
▁pursue	-8876
▁sacred	-8877
▁shares	-8878
▁walter	-8879
▁ethical	-8880
▁exagger	-8881
▁jessica	-8882
▁missile	-8883
▁survive	-8884
▁suspect	-8885
▁threats	-8886
▁tobacco	-8887
▁activism	-8888
▁ancestry	-8889
▁critique	-8890
▁disputes	-8891
▁exposure	-8892
▁external	-8893
▁graphics	-8894
▁severely	-8895
▁thriller	-8896
▁withdrew	-8897
▁advocated	-8898
▁elsewhere	-8899
▁immigrant	-8900
▁kidnapped	-8901
▁overthrow	-8902
▁phenomena	-8903
▁recognize	-8904
▁trademark	-8905
▁girlfriend	-8906
▁proclaimed	-8907
▁extensively	-8908
▁territorial	-8909
▁achievements	-8910
▁manufacturer	-8911
▁authoritarian	-8912
▁practitioners	-8913
gi	-8914
4).	-8915
ask	-8916
ben	-8917
bie	-8918
chi	-8919
ete	-8920
kyo	-8921
ovi	-8922
roe	-8923
▁(6	-8924
▁2:	-8925
chin	-8926
phic	-8927
wall	-8928
▁177	-8929
▁dod	-8930
▁duc	-8931
▁fis	-8932
▁maj	-8933
▁ved	-8934
ework	-8935
jamin	-8936
▁cape	-8937
▁carr	-8938
▁cler	-8939
▁craw	-8940
▁hier	-8941
▁ivan	-8942
▁laid	-8943
▁lamp	-8944
▁lens	-8945
▁lynn	-8946
▁mile	-8947
▁prad	-8948
▁send	-8949
▁sole	-8950
▁stim	-8951
addafi	-8952
▁1972,	-8953
▁bobby	-8954
▁deleg	-8955
▁diagn	-8956
▁ralph	-8957
▁scout	-8958
lington	-8959
playing	-8960
▁apprec	-8961
▁bottom	-8962
▁darwin	-8963
▁dennis	-8964
▁inters	-8965
▁posted	-8966
▁worlds	-8967
etheless	-8968
semitism	-8969
▁chelsea	-8970
▁dancing	-8971
▁debuted	-8972
▁divorce	-8973
▁footage	-8974
▁griffin	-8975
▁loosely	-8976
▁reserve	-8977
▁romania	-8978
▁vatican	-8979
▁eventual	-8980
▁explains	-8981
▁lifetime	-8982
▁limbaugh	-8983
▁operates	-8984
▁propriet	-8985
▁certainly	-8986
▁comedians	-8987
▁depicting	-8988
▁doctrines	-8989
▁expulsion	-8990
▁indicated	-8991
▁relatives	-8992
▁secession	-8993
▁conclusion	-8994
▁harassment	-8995
▁separation	-8996
▁suggesting	-8997
▁mississippi	-8998
▁potentially	-8999
▁controversially	-9000
7%	-9001
{{	-9002
gue	-9003
tur	-9004
▁ry	-9005
care	-9006
eler	-9007
uman	-9008
▁sue	-9009
iency	-9010
sters	-9011
▁1962	-9012
▁gets	-9013
▁hide	-9014
▁slam	-9015
▁tack	-9016
▁tale	-9017
aching	-9018
ascist	-9019
urring	-9020
▁osset	-9021
▁polar	-9022
▁resol	-9023
▁satis	-9024
▁singh	-9025
▁upset	-9026
▁yards	-9027
osition	-9028
▁hidden	-9029
▁strait	-9030
▁termed	-9031
▁whites	-9032
aughters	-9033
▁credits	-9034
▁focuses	-9035
▁lawsuit	-9036
▁monster	-9037
▁profile	-9038
▁branches	-9039
▁drinking	-9040
▁exercise	-9041
▁indicate	-9042
▁protocol	-9043
▁tourists	-9044
▁vladimir	-9045
▁academics	-9046
▁exclusive	-9047
▁municipal	-9048
▁prevented	-9049
▁protected	-9050
▁scholarly	-9051
▁mechanical	-9052
▁meditation	-9053
▁consumption	-9054
▁developments	-9055
▁encyclopedia	-9056
▁demonstrations	-9057
▁fundamentalist	-9058
6%	-9059
aa	-9060
aze	-9061
div	-9062
enh	-9063
lon	-9064
rac	-9065
uev	-9066
▁44	-9067
▁dw	-9068
▁wy	-9069
abul	-9070
acle	-9071
arus	-9072
▁168	-9073
▁bog	-9074
▁flu	-9075
▁lag	-9076
▁lud	-9077
agers	-9078
estab	-9079
▁1900	-9080
▁affl	-9081
▁bath	-9082
▁bren	-9083
▁chip	-9084
▁debt	-9085
▁hugo	-9086
▁sees	-9087
apolis	-9088
author	-9089
▁1976.	-9090
▁1982.	-9091
▁1984,	-9092
▁1988.	-9093
▁alger	-9094
▁evans	-9095
▁fruit	-9096
▁jason	-9097
▁lanka	-9098
achment	-9099
semitic	-9100
▁advers	-9101
▁calvin	-9102
▁curren	-9103
▁deeply	-9104
▁dollar	-9105
▁eighth	-9106
▁errors	-9107
▁foster	-9108
▁poster	-9109
▁quoted	-9110
▁rhodes	-9111
▁rogers	-9112
▁silent	-9113
european	-9114
expected	-9115
▁atlanta	-9116
▁belfast	-9117
▁coastal	-9118
▁fellows	-9119
▁grammar	-9120
▁rapidly	-9121
▁sparked	-9122
▁concerts	-9123
▁counties	-9124
▁enormous	-9125
▁favorite	-9126
▁keyboard	-9127
▁oklahoma	-9128
▁releases	-9129
▁requires	-9130
▁sections	-9131
▁senators	-9132
▁eliminate	-9133
▁emotional	-9134
▁landscape	-9135
▁objective	-9136
▁pregnancy	-9137
▁reflected	-9138
▁superstar	-9139
▁friendship	-9140
▁restricted	-9141
▁sufficient	-9142
▁cooperation	-9143
▁demonstrate	-9144
▁grandfather	-9145
▁nonetheless	-9146
▁requirements	-9147
▁championships	-9148
▁interpretations	-9149
aq	-9150
oz	-9151
cal	-9152
sub	-9153
▁bn	-9154
atar	-9155
body	-9156
miss	-9157
olly	-9158
page	-9159
prot	-9160
stri	-9161
▁kle	-9162
ivism	-9163
polit	-9164
rific	-9165
▁cogn	-9166
▁emig	-9167
▁thin	-9168
celona	-9169
isting	-9170
raltar	-9171
▁beast	-9172
▁cease	-9173
▁jammu	-9174
▁pharm	-9175
actress	-9176
▁butter	-9177
▁heroic	-9178
▁intent	-9179
▁limits	-9180
▁patrol	-9181
▁sector	-9182
▁damaged	-9183
▁disband	-9184
▁filming	-9185
▁spencer	-9186
▁strange	-9187
▁buddhist	-9188
▁chancell	-9189
▁familiar	-9190
▁handling	-9191
▁harrison	-9192
▁homeland	-9193
▁invented	-9194
▁israelis	-9195
▁nazareth	-9196
▁valuable	-9197
▁awareness	-9198
▁conquered	-9199
▁customers	-9200
▁essential	-9201
▁partition	-9202
▁victorian	-9203
▁unfortunate	-9204
▁consequences	-9205
gal	-9206
jab	-9207
lat	-9208
ugu	-9209
▁37	-9210
▁6-	-9211
▁6.	-9212
▁au	-9213
-197	-9214
elin	-9215
iffs	-9216
itan	-9217
lain	-9218
tran	-9219
▁bak	-9220
▁bik	-9221
▁dup	-9222
▁joh	-9223
▁wet	-9224
atism	-9225
court	-9226
istry	-9227
liber	-9228
omsky	-9229
utors	-9230
▁clan	-9231
▁else	-9232
▁hond	-9233
▁mour	-9234
▁neil	-9235
▁pure	-9236
▁tied	-9237
▁uefa	-9238
▁wire	-9239
ashing	-9240
▁1970)	-9241
▁1984.	-9242
▁1989.	-9243
▁anime	-9244
▁boliv	-9245
▁embry	-9246
▁niger	-9247
▁perry	-9248
▁plain	-9249
▁poems	-9250
▁rosen	-9251
▁scrut	-9252
▁shots	-9253
borough	-9254
▁aggreg	-9255
▁contra	-9256
▁dozens	-9257
▁ensure	-9258
▁ernest	-9259
▁giants	-9260
▁occurs	-9261
▁stream	-9262
▁superv	-9263
▁analyst	-9264
▁cameron	-9265
▁convert	-9266
▁discont	-9267
▁extract	-9268
▁falling	-9269
▁herbert	-9270
▁minimum	-9271
▁singers	-9272
▁teenage	-9273
▁warning	-9274
▁assisted	-9275
▁benjamin	-9276
▁centered	-9277
▁founders	-9278
▁jennifer	-9279
▁missions	-9280
▁overseas	-9281
▁sexually	-9282
▁swimming	-9283
▁thorough	-9284
▁attending	-9285
▁descended	-9286
▁mythology	-9287
▁similarly	-9288
▁subjected	-9289
▁temporary	-9290
▁adventures	-9291
▁christened	-9292
▁contradict	-9293
▁explaining	-9294
▁publicized	-9295
▁participate	-9296
▁deliberately	-9297
▁similarities	-9298
asi	-9299
cat	-9300
cop	-9301
ded	-9302
mic	-9303
▁ez	-9304
abel	-9305
emic	-9306
mail	-9307
▁(16	-9308
▁alg	-9309
▁ask	-9310
▁bun	-9311
▁fed	-9312
▁fro	-9313
▁ord	-9314
▁pam	-9315
▁sut	-9316
aired	-9317
avian	-9318
icked	-9319
▁ethn	-9320
▁fate	-9321
▁feed	-9322
▁jury	-9323
▁sean	-9324
▁shal	-9325
gments	-9326
timore	-9327
▁1961)	-9328
▁1973)	-9329
▁alumn	-9330
▁array	-9331
▁blind	-9332
▁fears	-9333
▁gabri	-9334
▁poles	-9335
▁taste	-9336
▁unlik	-9337
fiction	-9338
isition	-9339
ophobic	-9340
▁crimea	-9341
▁pastor	-9342
▁picked	-9343
▁window	-9344
izations	-9345
oriented	-9346
▁amounts	-9347
▁belgian	-9348
▁burning	-9349
▁conclus	-9350
▁confirm	-9351
▁customs	-9352
▁enthusi	-9353
▁gilbert	-9354
▁mansion	-9355
▁assigned	-9356
▁chapters	-9357
▁alternate	-9358
▁baltimore	-9359
▁conductor	-9360
▁encompass	-9361
▁marijuana	-9362
▁preserved	-9363
▁replacing	-9364
▁spokesman	-9365
▁sponsored	-9366
▁censorship	-9367
▁linguistic	-9368
▁nineteenth	-9369
▁pittsburgh	-9370
▁proportion	-9371
▁homosexuals	-9372
▁theological	-9373
▁compensation	-9374
▁mathematician	-9375
▁philosophical	-9376
▁pronunciation	-9377
!"	-9378
29	-9379
cut	-9380
dan	-9381
emy	-9382
eto	-9383
low	-9384
uns	-9385
wer	-9386
ype	-9387
▁34	-9388
▁wu	-9389
-199	-9390
bird	-9391
comp	-9392
eway	-9393
iano	-9394
phan	-9395
▁bod	-9396
▁jar	-9397
▁sig	-9398
▁voy	-9399
atoes	-9400
elect	-9401
ijing	-9402
lived	-9403
power	-9404
▁1939	-9405
▁1955	-9406
▁dere	-9407
▁fees	-9408
▁gust	-9409
▁kirk	-9410
▁luke	-9411
▁mack	-9412
▁maid	-9413
▁reid	-9414
▁seal	-9415
▁shan	-9416
▁shaw	-9417
▁soci	-9418
▁tomb	-9419
▁yale	-9420
arians	-9421
couver	-9422
▁(2000	-9423
▁1979.	-9424
▁1990,	-9425
▁alice	-9426
▁cohen	-9427
▁deriv	-9428
▁dozen	-9429
▁eddie	-9430
▁error	-9431
▁files	-9432
▁fixed	-9433
▁forty	-9434
▁grade	-9435
▁krist	-9436
▁offsh	-9437
▁releg	-9438
▁rings	-9439
▁tokyo	-9440
alistic	-9441
israeli	-9442
ractors	-9443
▁advice	-9444
▁armies	-9445
▁buddha	-9446
▁colomb	-9447
▁consol	-9448
▁driven	-9449
▁fusion	-9450
▁obtain	-9451
▁outlaw	-9452
▁poorly	-9453
▁prophe	-9454
▁reader	-9455
▁server	-9456
▁stuart	-9457
▁superb	-9458
▁transc	-9459
▁watson	-9460
▁backing	-9461
▁baghdad	-9462
▁chomsky	-9463
▁dubious	-9464
▁farmers	-9465
▁fifteen	-9466
▁goddess	-9467
▁kenneth	-9468
▁telling	-9469
▁weekend	-9470
▁apostles	-9471
▁birthday	-9472
▁montreal	-9473
▁parallel	-9474
▁sessions	-9475
▁unlikely	-9476
▁believing	-9477
▁bolshevik	-9478
▁encourage	-9479
▁functions	-9480
▁identical	-9481
▁recipient	-9482
▁surviving	-9483
▁exhibition	-9484
▁personally	-9485
▁situations	-9486
▁appointment	-9487
▁compilation	-9488
▁description	-9489
▁instruments	-9490
▁resignation	-9491
▁conventional	-9492
▁demonstration	-9493
si	-9494
omi	-9495
tes	-9496
akia	-9497
baum	-9498
colm	-9499
educ	-9500
ello	-9501
erie	-9502
rity	-9503
span	-9504
yard	-9505
▁ads	-9506
olent	-9507
orous	-9508
spect	-9509
urers	-9510
▁beer	-9511
▁eman	-9512
▁fake	-9513
▁hugh	-9514
▁mild	-9515
reated	-9516
▁antic	-9517
▁dated	-9518
▁heads	-9519
▁loose	-9520
▁mahar	-9521
▁mecca	-9522
▁phase	-9523
▁plate	-9524
▁swift	-9525
▁truly	-9526
▁worse	-9527
culture	-9528
ignment	-9529
ismatic	-9530
ocratic	-9531
▁boasts	-9532
▁clever	-9533
▁incons	-9534
▁irving	-9535
▁namely	-9536
▁slaves	-9537
▁throne	-9538
▁disagre	-9539
▁keeping	-9540
▁lawyers	-9541
▁monothe	-9542
▁simpson	-9543
▁wedding	-9544
▁wrongly	-9545
president	-9546
▁approval	-9547
▁properly	-9548
▁supremac	-9549
▁warriors	-9550
▁watchdog	-9551
▁correctly	-9552
▁diversity	-9553
▁gibraltar	-9554
▁proponent	-9555
▁residence	-9556
▁slaughter	-9557
▁associates	-9558
▁automobile	-9559
▁communists	-9560
▁integrated	-9561
▁percentage	-9562
▁humanitarian	-9563
▁southeastern	-9564
rs	-9565
-10	-9566
-15	-9567
2).	-9568
gus	-9569
mah	-9570
osa	-9571
tel	-9572
two	-9573
zel	-9574
▁8.	-9575
▁dh	-9576
▁dy	-9577
bish	-9578
ilia	-9579
issa	-9580
mund	-9581
reck	-9582
stad	-9583
ules	-9584
▁181	-9585
▁cum	-9586
▁itv	-9587
▁jav	-9588
▁mak	-9589
▁mao	-9590
▁pub	-9591
▁wer	-9592
ables	-9593
aelic	-9594
karab	-9595
later	-9596
oslov	-9597
▁(190	-9598
▁1918	-9599
▁1959	-9600
▁bise	-9601
▁bloc	-9602
▁ferr	-9603
▁intr	-9604
▁mann	-9605
▁obst	-9606
▁roth	-9607
▁tech	-9608
▁wool	-9609
german	-9610
jewish	-9611
makers	-9612
▁1967.	-9613
▁1972.	-9614
▁1975,	-9615
▁2018,	-9616
▁acted	-9617
▁arbit	-9618
▁arena	-9619
▁heret	-9620
▁jihad	-9621
▁laugh	-9622
▁meets	-9623
▁moses	-9624
▁parks	-9625
▁perce	-9626
▁rebut	-9627
▁ridge	-9628
▁rifle	-9629
▁sanct	-9630
▁spell	-9631
▁toxic	-9632
▁asking	-9633
▁confer	-9634
▁finest	-9635
▁justin	-9636
▁killer	-9637
▁missed	-9638
▁scores	-9639
▁signal	-9640
▁stages	-9641
▁styles	-9642
▁teleph	-9643
▁trophy	-9644
▁valent	-9645
karabakh	-9646
▁beatles	-9647
▁bishops	-9648
▁circles	-9649
▁consent	-9650
▁embassy	-9651
▁hearing	-9652
▁masters	-9653
▁nagorno	-9654
▁obscure	-9655
▁painted	-9656
▁pradesh	-9657
▁putting	-9658
▁refuted	-9659
▁revenge	-9660
▁rockets	-9661
▁thereby	-9662
▁trading	-9663
▁walking	-9664
▁zionism	-9665
represent	-9666
▁alphabet	-9667
▁bisexual	-9668
▁controls	-9669
▁mohammed	-9670
▁monarchy	-9671
▁monaster	-9672
▁normally	-9673
▁phillips	-9674
▁provider	-9675
▁armstrong	-9676
▁disgraced	-9677
▁excessive	-9678
▁extremist	-9679
▁framework	-9680
▁hilarious	-9681
▁recovered	-9682
▁testimony	-9683
▁interested	-9684
▁paranormal	-9685
▁possession	-9686
▁programmes	-9687
▁regardless	-9688
▁syndicated	-9689
▁unexpected	-9690
▁coordinated	-9691
▁integration	-9692
▁improvements	-9693
▁totalitarian	-9694
ema	-9695
iry	-9696
log	-9697
sol	-9698
▁38	-9699
anes	-9700
asis	-9701
inis	-9702
izer	-9703
khaz	-9704
mart	-9705
▁ADJ	-9706
▁cot	-9707
▁hub	-9708
▁moz	-9709
count	-9710
▁1915	-9711
▁deny	-9712
▁liqu	-9713
▁ramp	-9714
▁rhet	-9715
▁sham	-9716
▁wise	-9717
mother	-9718
▁conce	-9719
▁golan	-9720
▁mario	-9721
▁myths	-9722
▁shall	-9723
▁abkhaz	-9724
▁anthem	-9725
▁compat	-9726
▁fairly	-9727
▁martha	-9728
▁palmer	-9729
▁prejud	-9730
▁rarely	-9731
▁slogan	-9732
▁sloven	-9733
▁tigers	-9734
▁comedic	-9735
▁desktop	-9736
▁disturb	-9737
▁ignored	-9738
▁malcolm	-9739
▁marines	-9740
▁morocco	-9741
▁sustain	-9742
▁treason	-9743
▁concrete	-9744
▁germanic	-9745
▁longtime	-9746
▁malaysia	-9747
▁symptoms	-9748
▁barcelona	-9749
▁daughters	-9750
▁explosion	-9751
▁indonesia	-9752
▁providers	-9753
▁accomplish	-9754
▁abbreviated	-9755
▁northeastern	-9756
▁personalities	-9757
▁overwhelmingly	-9758
):	-9759
2%	-9760
24	-9761
?"	-9762
bas	-9763
bud	-9764
kan	-9765
oba	-9766
urt	-9767
▁(5	-9768
▁(7	-9769
▁43	-9770
▁ng	-9771
▁oz	-9772
ario	-9773
brit	-9774
cers	-9775
disc	-9776
hall	-9777
hana	-9778
hips	-9779
kees	-9780
orum	-9781
some	-9782
vent	-9783
▁cig	-9784
▁cla	-9785
▁pic	-9786
▁suz	-9787
build	-9788
ifada	-9789
isons	-9790
mouth	-9791
redit	-9792
▁chat	-9793
▁dece	-9794
▁dian	-9795
▁ensu	-9796
▁gest	-9797
▁jump	-9798
▁kend	-9799
▁noah	-9800
▁opus	-9801
▁oral	-9802
▁palm	-9803
▁repr	-9804
▁tang	-9805
▁trem	-9806
arayan	-9807
incial	-9808
sexual	-9809
▁1979,	-9810
▁1980,	-9811
▁aside	-9812
▁carib	-9813
▁chess	-9814
▁cycle	-9815
▁galax	-9816
▁putin	-9817
▁ruins	-9818
▁templ	-9819
▁trium	-9820
▁wider	-9821
▁witch	-9822
donnell	-9823
elected	-9824
ortions	-9825
▁10,000	-9826
▁athens	-9827
▁chocol	-9828
▁colors	-9829
▁conven	-9830
▁crucif	-9831
▁happen	-9832
▁lesser	-9833
▁mining	-9834
▁morgan	-9835
▁murphy	-9836
▁passes	-9837
▁pierre	-9838
▁revolt	-9839
▁rotten	-9840
▁slowly	-9841
▁spider	-9842
▁suffer	-9843
▁tempor	-9844
▁warsaw	-9845
appropri	-9846
▁antonio	-9847
▁couples	-9848
▁factory	-9849
▁mixture	-9850
▁mormons	-9851
▁psychic	-9852
▁quantum	-9853
▁raising	-9854
▁cartoons	-9855
▁constitu	-9856
▁currency	-9857
▁employee	-9858
▁interrog	-9859
▁morality	-9860
▁railroad	-9861
▁stanford	-9862
▁youngest	-9863
▁celebrate	-9864
▁churchill	-9865
▁collected	-9866
▁companion	-9867
▁consumers	-9868
▁efficient	-9869
▁popularly	-9870
▁vancouver	-9871
▁attributes	-9872
▁boundaries	-9873
▁conviction	-9874
▁czechoslov	-9875
▁employment	-9876
▁millennium	-9877
▁mistakenly	-9878
▁exclusively	-9879
▁generations	-9880
▁statistical	-9881
▁commissioned	-9882
▁negotiations	-9883
▁prostitution	-9884
▁institutional	-9885
▁|	-9886
cho	-9887
sup	-9888
gard	-9889
illo	-9890
istle	-9891
langu	-9892
ucker	-9893
▁imam	-9894
▁pact	-9895
▁rear	-9896
▁stro	-9897
▁tong	-9898
illery	-9899
▁1971)	-9900
▁atroc	-9901
▁deals	-9902
▁dying	-9903
▁farms	-9904
▁grown	-9905
▁indie	-9906
▁infer	-9907
▁looks	-9908
▁roads	-9909
▁shift	-9910
▁thorn	-9911
leading	-9912
running	-9913
urately	-9914
▁aerial	-9915
▁betray	-9916
▁deport	-9917
▁destro	-9918
▁frater	-9919
▁reveal	-9920
▁tribal	-9921
▁voices	-9922
language	-9923
occupied	-9924
▁ceremon	-9925
▁distant	-9926
▁enlight	-9927
▁forcing	-9928
▁privile	-9929
▁pursued	-9930
▁demanded	-9931
▁educated	-9932
▁feminism	-9933
▁retained	-9934
▁sequence	-9935
▁thirteen	-9936
▁tropical	-9937
▁commented	-9938
▁instances	-9939
▁ministers	-9940
▁performer	-9941
▁permitted	-9942
▁recurring	-9943
▁attractive	-9944
▁chancellor	-9945
▁designated	-9946
▁liberalism	-9947
▁statistics	-9948
▁agriculture	-9949
▁appropriate	-9950
▁creationists	-9951
▁mathematical	-9952
▁municipality	-9953
-5	-9954
.-	-9955
27	-9956
45	-9957
99	-9958
cla	-9959
eri	-9960
eva	-9961
idd	-9962
ppe	-9963
soc	-9964
yon	-9965
▁48	-9966
both	-9967
john	-9968
math	-9969
mind	-9970
oard	-9971
orks	-9972
wart	-9973
▁600	-9974
▁cyn	-9975
▁fol	-9976
▁kub	-9977
▁lod	-9978
▁zel	-9979
▁zim	-9980
amine	-9981
ashes	-9982
eared	-9983
ether	-9984
heart	-9985
japan	-9986
lando	-9987
nesty	-9988
otten	-9989
ussia	-9990
▁1928	-9991
▁1929	-9992
▁1942	-9993
▁alle	-9994
▁dish	-9995
▁gift	-9996
▁insc	-9997
▁kids	-9998
▁klan	-9999
▁mong	-10000
▁neck	-10001
▁peru	-10002
▁pius	-10003
▁shap	-10004
▁shif	-10005
▁ster	-10006
▁trig	-10007
▁wage	-10008
▁xbox	-10009
bishop	-10010
cially	-10011
ipping	-10012
minute	-10013
ocracy	-10014
▁1947)	-10015
▁1948,	-10016
▁1967,	-10017
▁1968)	-10018
▁1974.	-10019
▁boris	-10020
▁guant	-10021
▁lying	-10022
▁lyric	-10023
▁mason	-10024
▁milan	-10025
▁nancy	-10026
▁sight	-10027
▁telec	-10028
▁unity	-10029
▁villa	-10030
▁woods	-10031
▁abduct	-10032
▁adjust	-10033
▁adults	-10034
▁affirm	-10035
▁bronze	-10036
▁chapel	-10037
▁fallen	-10038
▁gaelic	-10039
▁lights	-10040
▁manual	-10041
▁nights	-10042
▁notice	-10043
▁sacrif	-10044
▁altered	-10045
▁condemn	-10046
▁console	-10047
▁gregory	-10048
▁healing	-10049
▁katrina	-10050
▁knights	-10051
▁madonna	-10052
▁neocons	-10053
▁notting	-10054
▁operate	-10055
▁orlando	-10056
▁patriot	-10057
▁revenue	-10058
▁timothy	-10059
▁announce	-10060
▁chambers	-10061
▁crucifix	-10062
▁equality	-10063
▁focusing	-10064
▁garnered	-10065
▁gathered	-10066
▁intifada	-10067
▁merchant	-10068
▁missiles	-10069
▁secretly	-10070
▁spectrum	-10071
▁suburban	-10072
▁suppress	-10073
▁surprise	-10074
▁abilities	-10075
▁abolition	-10076
▁addiction	-10077
▁charlotte	-10078
▁commanded	-10079
▁increases	-10080
▁newcastle	-10081
▁occupying	-10082
▁physicist	-10083
▁promising	-10084
▁reactions	-10085
▁requiring	-10086
▁responses	-10087
▁signature	-10088
▁unwilling	-10089
▁aboriginal	-10090
▁attendance	-10091
▁journalism	-10092
▁minorities	-10093
▁pioneering	-10094
▁presenting	-10095
▁presumably	-10096
▁transliter	-10097
▁considering	-10098
▁contributing	-10099
▁manufactured	-10100
35	-10101
aba	-10102
ede	-10103
rix	-10104
uri	-10105
bean	-10106
bery	-10107
case	-10108
fers	-10109
ovan	-10110
rand	-10111
then	-10112
▁blo	-10113
▁cyr	-10114
brien	-10115
etics	-10116
ifact	-10117
itely	-10118
owing	-10119
▁boss	-10120
▁coca	-10121
▁erup	-10122
▁fond	-10123
▁gamb	-10124
▁huff	-10125
▁lose	-10126
▁owen	-10127
▁push	-10128
entric	-10129
headed	-10130
itious	-10131
oustic	-10132
▁1974,	-10133
▁1976,	-10134
▁ellen	-10135
▁spite	-10136
▁talks	-10137
ounding	-10138
uration	-10139
▁abuses	-10140
▁cheese	-10141
▁domain	-10142
▁gentle	-10143
▁lovely	-10144
▁mascul	-10145
▁milton	-10146
▁purple	-10147
▁signif	-10148
▁vessel	-10149
▁anarcho	-10150
▁beijing	-10151
▁bosnian	-10152
▁drivers	-10153
▁facilit	-10154
▁labeled	-10155
▁motorcy	-10156
▁partial	-10157
▁arkansas	-10158
▁artifact	-10159
▁socially	-10160
▁symbolic	-10161
▁emissions	-10162
▁indicates	-10163
▁physician	-10164
▁procedure	-10165
▁provinces	-10166
▁unpopular	-10167
▁variation	-10168
▁advocating	-10169
▁regulation	-10170
▁designation	-10171
cr	-10172
df	-10173
hom	-10174
nbc	-10175
▁ig	-10176
aser	-10177
asha	-10178
bing	-10179
esty	-10180
hist	-10181
ilyn	-10182
olds	-10183
omor	-10184
orus	-10185
rain	-10186
rite	-10187
ylan	-10188
▁175	-10189
▁cox	-10190
▁hag	-10191
▁kam	-10192
▁leo	-10193
▁tat	-10194
▁uss	-10195
▁vii	-10196
amics	-10197
eness	-10198
illes	-10199
ishna	-10200
owitz	-10201
▁1917	-10202
▁1933	-10203
▁1953	-10204
▁2018	-10205
▁alas	-10206
▁beir	-10207
▁bund	-10208
▁dual	-10209
▁emma	-10210
▁fitz	-10211
▁iber	-10212
▁judy	-10213
▁loan	-10214
▁shia	-10215
▁wend	-10216
ielder	-10217
intosh	-10218
irable	-10219
jacent	-10220
points	-10221
ussion	-10222
▁1,000	-10223
▁1949)	-10224
▁1949,	-10225
▁1952)	-10226
▁1953)	-10227
▁1968.	-10228
▁1987,	-10229
▁2,000	-10230
▁alike	-10231
▁bears	-10232
▁danny	-10233
▁deity	-10234
▁firef	-10235
▁frust	-10236
▁grass	-10237
▁karen	-10238
▁laura	-10239
▁lynch	-10240
▁polls	-10241
▁pride	-10242
▁serbs	-10243
▁spoof	-10244
▁subsc	-10245
▁sudan	-10246
▁vital	-10247
astrous	-10248
inburgh	-10249
mitting	-10250
▁anchor	-10251
▁backed	-10252
▁baltic	-10253
▁banner	-10254
▁brooks	-10255
▁eating	-10256
▁gibson	-10257
▁monday	-10258
▁ostens	-10259
▁profit	-10260
▁punjab	-10261
▁swamin	-10262
▁unjust	-10263
formerly	-10264
▁admiral	-10265
▁barrier	-10266
▁bradley	-10267
▁debates	-10268
▁diction	-10269
▁earthqu	-10270
▁exposed	-10271
▁hostage	-10272
▁infring	-10273
▁legends	-10274
▁package	-10275
▁payment	-10276
▁priests	-10277
▁promise	-10278
▁revised	-10279
▁sympath	-10280
▁touring	-10281
▁vincent	-10282
▁adjacent	-10283
▁atheists	-10284
▁editions	-10285
▁estonian	-10286
▁ethiopia	-10287
▁judicial	-10288
▁kentucky	-10289
▁metaphor	-10290
▁partisan	-10291
▁patterns	-10292
▁register	-10293
▁theorist	-10294
▁aftermath	-10295
▁anarchism	-10296
▁determine	-10297
▁displayed	-10298
▁hampshire	-10299
▁premiered	-10300
▁releasing	-10301
▁sculpture	-10302
▁anarchists	-10303
▁components	-10304
▁demolished	-10305
▁detractors	-10306
▁disastrous	-10307
▁electrical	-10308
▁insurgents	-10309
▁procedures	-10310
▁professors	-10311
▁provincial	-10312
▁commemorate	-10313
▁ideological	-10314
▁proposition	-10315
▁transferred	-10316
▁questionable	-10317
▁translations	-10318
▁manufacturing	-10319
▁investigations	-10320
21	-10321
="	-10322
ci	-10323
afa	-10324
iki	-10325
irc	-10326
lie	-10327
mid	-10328
uda	-10329
good	-10330
ills	-10331
rama	-10332
unct	-10333
uous	-10334
▁irr	-10335
▁lak	-10336
▁pok	-10337
▁vil	-10338
eches	-10339
ellar	-10340
ensed	-10341
group	-10342
isive	-10343
mates	-10344
opath	-10345
▁1911	-10346
▁axis	-10347
▁cinc	-10348
▁dust	-10349
▁fulf	-10350
▁phon	-10351
▁sink	-10352
▁styl	-10353
itched	-10354
▁blond	-10355
▁carri	-10356
▁clare	-10357
▁derry	-10358
▁drums	-10359
▁julia	-10360
▁pejor	-10361
▁procl	-10362
▁reloc	-10363
▁tough	-10364
▁austin	-10365
▁eldest	-10366
▁greeks	-10367
▁ladies	-10368
▁poison	-10369
▁preval	-10370
▁privat	-10371
official	-10372
▁besides	-10373
▁enacted	-10374
▁gaining	-10375
▁gospels	-10376
▁sitting	-10377
▁updated	-10378
▁advances	-10379
▁annually	-10380
▁findings	-10381
▁goldberg	-10382
▁michelle	-10383
▁reformed	-10384
▁ruthless	-10385
▁tendency	-10386
▁terrible	-10387
▁competing	-10388
▁delicious	-10389
▁mormonism	-10390
▁classified	-10391
▁indonesian	-10392
▁permission	-10393
▁achievement	-10394
▁catholicism	-10395
▁predecessor	-10396
▁proprietary	-10397
▁establishing	-10398
▁interference	-10399
▁jurisdiction	-10400
▁recreational	-10401
44	-10402
83	-10403
hs	-10404
ahu	-10405
cot	-10406
fan	-10407
mag	-10408
nee	-10409
rev	-10410
sty	-10411
tax	-10412
van	-10413
▁75	-10414
alid	-10415
ashi	-10416
cash	-10417
expl	-10418
girl	-10419
grad	-10420
main	-10421
odia	-10422
rams	-10423
they	-10424
type	-10425
▁ADP	-10426
▁dak	-10427
▁gog	-10428
▁gut	-10429
▁jub	-10430
▁kap	-10431
▁orb	-10432
▁ski	-10433
▁urg	-10434
▁vas	-10435
▁wwe	-10436
▁xen	-10437
▁yes	-10438
arist	-10439
brook	-10440
inely	-10441
ostic	-10442
ovsky	-10443
ronym	-10444
▁dale	-10445
▁gonz	-10446
▁lion	-10447
▁lisa	-10448
▁mant	-10449
▁mere	-10450
▁pete	-10451
▁root	-10452
▁sort	-10453
▁stir	-10454
▁summ	-10455
▁tiny	-10456
▁ussr	-10457
▁vert	-10458
▁wald	-10459
▁walt	-10460
illion	-10461
inform	-10462
innati	-10463
semble	-10464
▁1941,	-10465
▁1944.	-10466
▁1948.	-10467
▁1969)	-10468
▁1978,	-10469
▁1981,	-10470
▁2005)	-10471
▁acres	-10472
▁adequ	-10473
▁apply	-10474
▁breed	-10475
▁dylan	-10476
▁evalu	-10477
▁gates	-10478
▁index	-10479
▁isaac	-10480
▁janet	-10481
▁lakes	-10482
▁lloyd	-10483
▁noise	-10484
▁optim	-10485
▁palin	-10486
▁posed	-10487
▁scope	-10488
▁stein	-10489
▁tablo	-10490
▁torah	-10491
▁usual	-10492
▁winds	-10493
english	-10494
▁ballad	-10495
▁firing	-10496
▁genres	-10497
▁gerald	-10498
▁hindus	-10499
▁horses	-10500
▁incarn	-10501
▁kerala	-10502
▁manuel	-10503
▁marcus	-10504
▁random	-10505
▁reward	-10506
▁trains	-10507
▁tunnel	-10508
▁absence	-10509
▁amnesty	-10510
▁banning	-10511
▁biology	-10512
▁bridges	-10513
▁coleman	-10514
▁disrupt	-10515
▁farming	-10516
▁fascism	-10517
▁franken	-10518
▁organic	-10519
▁ossetia	-10520
▁pirates	-10521
▁recruit	-10522
▁sharing	-10523
▁smoking	-10524
▁suburbs	-10525
▁succeed	-10526
▁symbols	-10527
▁anglican	-10528
▁authored	-10529
▁buddhism	-10530
▁covenant	-10531
▁delivery	-10532
▁ensemble	-10533
▁journals	-10534
▁printing	-10535
▁removing	-10536
ologically	-10537
▁believers	-10538
▁detective	-10539
▁disbanded	-10540
▁edinburgh	-10541
▁meanwhile	-10542
▁occurring	-10543
▁requested	-10544
▁astronomer	-10545
▁birthplace	-10546
▁nottingham	-10547
▁provisions	-10548
▁composition	-10549
▁instruction	-10550
▁permanently	-10551
▁prosecution	-10552
▁transformed	-10553
▁unification	-10554
▁commissioner	-10555
▁swaminarayan	-10556
▁opportunities	-10557
alt	-10558
bus	-10559
eria	-10560
zion	-10561
▁kon	-10562
▁lip	-10563
▁ltd	-10564
apsed	-10565
green	-10566
icion	-10567
space	-10568
usted	-10569
▁1910	-10570
▁mini	-10571
▁mish	-10572
▁pist	-10573
▁wimb	-10574
action	-10575
arrass	-10576
funded	-10577
gender	-10578
▁1946)	-10579
▁frame	-10580
anskrit	-10581
itative	-10582
leaning	-10583
quality	-10584
▁boxing	-10585
▁dispar	-10586
▁gaming	-10587
▁honour	-10588
▁marath	-10589
▁planes	-10590
▁proven	-10591
▁unanim	-10592
fficient	-10593
▁arabian	-10594
▁catalan	-10595
▁commons	-10596
▁hosting	-10597
▁refusal	-10598
▁scandin	-10599
▁turning	-10600
▁uniform	-10601
terrorism	-10602
▁abkhazia	-10603
▁dialogue	-10604
▁scrutiny	-10605
▁speeches	-10606
▁takeover	-10607
especially	-10608
▁detainees	-10609
▁eccentric	-10610
▁embarrass	-10611
▁encounter	-10612
▁invention	-10613
▁patriotic	-10614
▁privately	-10615
▁selective	-10616
▁substance	-10617
▁survivors	-10618
▁engagement	-10619
▁goalkeeper	-10620
▁nationally	-10621
▁objections	-10622
▁richardson	-10623
▁popularized	-10624
▁preparation	-10625
▁difficulties	-10626
▁explanations	-10627
▁paramilitaries	-10628
ls	-10629
zi	-10630
cro	-10631
fat	-10632
hin	-10633
iac	-10634
iko	-10635
nan	-10636
ook	-10637
uce	-10638
uto	-10639
via	-10640
▁#1	-10641
▁3-	-10642
▁47	-10643
▁ja	-10644
▁kg	-10645
abwe	-10646
alan	-10647
bage	-10648
bath	-10649
cery	-10650
elli	-10651
even	-10652
ishi	-10653
nand	-10654
orth	-10655
ovic	-10656
ribe	-10657
▁lis	-10658
▁mum	-10659
▁pec	-10660
▁roc	-10661
▁sta	-10662
adows	-10663
final	-10664
ouses	-10665
ships	-10666
▁"...	-10667
▁1914	-10668
▁aest	-10669
▁cats	-10670
▁dies	-10671
▁dump	-10672
▁gear	-10673
▁hoax	-10674
▁hurt	-10675
▁java	-10676
▁lenn	-10677
▁libr	-10678
▁mine	-10679
▁pond	-10680
▁pull	-10681
▁sack	-10682
▁soil	-10683
▁stup	-10684
▁vamp	-10685
▁warm	-10686
00,000	-10687
forced	-10688
handed	-10689
imedia	-10690
intern	-10691
kinson	-10692
ularly	-10693
▁1948)	-10694
▁1963)	-10695
▁1965)	-10696
▁1975)	-10697
▁1981.	-10698
▁1982)	-10699
▁1988,	-10700
▁abund	-10701
▁arian	-10702
▁badly	-10703
▁colin	-10704
▁crypt	-10705
▁dimin	-10706
▁effic	-10707
▁faces	-10708
▁ideal	-10709
▁malay	-10710
▁moves	-10711
▁papal	-10712
▁spend	-10713
▁suite	-10714
▁swing	-10715
▁teleg	-10716
▁tommy	-10717
▁turns	-10718
▁walls	-10719
▁yorks	-10720
abulary	-10721
▁aboard	-10722
▁beirut	-10723
▁cruise	-10724
▁dreams	-10725
▁fossil	-10726
▁harper	-10727
▁lacked	-10728
▁landed	-10729
▁looked	-10730
▁ottawa	-10731
▁refere	-10732
▁sacram	-10733
▁stable	-10734
▁starts	-10735
▁weaken	-10736
produced	-10737
▁acronym	-10738
▁comprom	-10739
▁crashed	-10740
▁derives	-10741
▁eminent	-10742
▁firearm	-10743
▁hannity	-10744
▁marilyn	-10745
▁placing	-10746
▁posthum	-10747
▁renewed	-10748
▁triumph	-10749
▁campuses	-10750
▁columbus	-10751
▁download	-10752
▁pointing	-10753
▁populist	-10754
▁premiere	-10755
▁richmond	-10756
▁addressed	-10757
▁byzantine	-10758
▁chocolate	-10759
▁histories	-10760
▁installed	-10761
▁lithuania	-10762
▁macdonald	-10763
▁marriages	-10764
▁recommend	-10765
▁storyline	-10766
▁submarine	-10767
▁telephone	-10768
▁victories	-10769
▁voluntary	-10770
▁witnessed	-10771
▁archbishop	-10772
▁cincinnati	-10773
▁constitute	-10774
▁explosives	-10775
▁inappropri	-10776
▁challenging	-10777
▁erroneously	-10778
▁masterpiece	-10779
▁observation	-10780
▁temperature	-10781
▁temporarily	-10782
▁capabilities	-10783
▁distributions	-10784
▁undergraduate	-10785
46	-10786
fo	-10787
fs	-10788
nt	-10789
197	-10790
aph	-10791
esa	-10792
haw	-10793
rod	-10794
▁33	-10795
brid	-10796
east	-10797
name	-10798
note	-10799
stan	-10800
▁rah	-10801
adian	-10802
arity	-10803
chief	-10804
eback	-10805
great	-10806
icity	-10807
ledon	-10808
rophe	-10809
utely	-10810
▁belt	-10811
▁genu	-10812
▁perc	-10813
direct	-10814
urrent	-10815
▁1978)	-10816
▁blast	-10817
▁hardy	-10818
▁ignor	-10819
▁logic	-10820
▁manga	-10821
▁marit	-10822
▁panor	-10823
▁robot	-10824
▁topic	-10825
instein	-10826
usually	-10827
▁bitter	-10828
▁breast	-10829
▁debian	-10830
▁fabric	-10831
▁guards	-10832
ceptions	-10833
inations	-10834
▁armenia	-10835
▁atheism	-10836
▁belarus	-10837
▁compete	-10838
▁exactly	-10839
▁harmful	-10840
▁monopol	-10841
▁oakland	-10842
▁restore	-10843
▁rituals	-10844
▁skilled	-10845
▁unified	-10846
▁acoustic	-10847
▁comeback	-10848
▁defender	-10849
▁disagree	-10850
▁martyred	-10851
▁portrait	-10852
▁suddenly	-10853
▁validity	-10854
controlled	-10855
▁inherited	-10856
▁integrity	-10857
▁sustained	-10858
▁wimbledon	-10859
▁accessible	-10860
▁aggression	-10861
▁biographer	-10862
▁enormously	-10863
▁impression	-10864
▁lithuanian	-10865
▁ostensibly	-10866
▁counterpart	-10867
▁discussions	-10868
▁speculation	-10869
▁northwestern	-10870
▁technological	-10871
1-	-10872
22	-10873
eh	-10874
-16	-10875
ayy	-10876
dia	-10877
gas	-10878
gom	-10879
jay	-10880
orf	-10881
raw	-10882
ums	-10883
zed	-10884
▁7.	-10885
▁cm	-10886
▁ft	-10887
▁xi	-10888
arta	-10889
asia	-10890
atra	-10891
dles	-10892
door	-10893
gart	-10894
hess	-10895
high	-10896
hung	-10897
igue	-10898
ilda	-10899
otal	-10900
supp	-10901
umar	-10902
▁(15	-10903
▁cbe	-10904
▁eup	-10905
▁fah	-10906
▁lun	-10907
▁rio	-10908
▁sox	-10909
▁tip	-10910
▁vow	-10911
aring	-10912
berry	-10913
clair	-10914
enson	-10915
holic	-10916
igate	-10917
quest	-10918
quist	-10919
▁1951	-10920
▁1952	-10921
▁bach	-10922
▁feud	-10923
▁furn	-10924
▁holl	-10925
▁owns	-10926
▁ride	-10927
▁sits	-10928
▁thai	-10929
▁till	-10930
▁tune	-10931
▁yesh	-10932
ailand	-10933
ancing	-10934
apping	-10935
bridge	-10936
cribed	-10937
finals	-10938
infeld	-10939
length	-10940
ophone	-10941
veland	-10942
▁1962)	-10943
▁1964)	-10944
▁1975.	-10945
▁1986.	-10946
▁abbey	-10947
▁alter	-10948
▁brave	-10949
▁burns	-10950
▁climb	-10951
▁coron	-10952
▁depth	-10953
▁embra	-10954
▁enhan	-10955
▁escal	-10956
▁geoff	-10957
▁jenny	-10958
▁jokes	-10959
▁maker	-10960
▁pedro	-10961
▁quart	-10962
▁rooms	-10963
▁sandy	-10964
▁synag	-10965
▁thank	-10966
▁truck	-10967
▁twins	-10968
bermann	-10969
fascist	-10970
profile	-10971
▁alumni	-10972
▁ambigu	-10973
▁bengal	-10974
▁curtis	-10975
▁faster	-10976
▁feared	-10977
▁forums	-10978
▁harvey	-10979
▁insert	-10980
▁marion	-10981
▁monica	-10982
▁output	-10983
▁patric	-10984
▁patron	-10985
▁paying	-10986
▁runner	-10987
▁solely	-10988
▁viktor	-10989
▁airline	-10990
▁blogger	-10991
▁boycott	-10992
▁clients	-10993
▁crimean	-10994
▁eternal	-10995
▁gaddafi	-10996
▁healthy	-10997
▁overtur	-10998
▁pitcher	-10999
▁playboy	-11000
▁ranking	-11001
▁richest	-11002
▁soviets	-11003
▁venture	-11004
▁viewing	-11005
▁volumes	-11006
▁abducted	-11007
▁archives	-11008
▁brutally	-11009
▁caroline	-11010
▁channels	-11011
▁colombia	-11012
▁consolid	-11013
▁creature	-11014
▁deployed	-11015
▁hispanic	-11016
▁informal	-11017
▁inventor	-11018
▁kingston	-11019
▁messages	-11020
▁mohammad	-11021
▁moroccan	-11022
▁resource	-11023
▁richards	-11024
▁studying	-11025
▁ancestors	-11026
▁caribbean	-11027
▁comprised	-11028
▁denounced	-11029
▁directors	-11030
▁districts	-11031
▁inclusion	-11032
▁investors	-11033
▁monastery	-11034
▁robertson	-11035
▁yorkshire	-11036
▁agreements	-11037
▁broadcasts	-11038
▁earthquake	-11039
▁fellowship	-11040
▁philippine	-11041
▁attractions	-11042
▁charismatic	-11043
▁legislature	-11044
▁psychiatric	-11045
▁corporations	-11046
▁experimental	-11047
▁imprisonment	-11048
▁architectural	-11049
▁manufacturers	-11050
▁transformation	-11051
auc	-11052
erg	-11053
esc	-11054
eys	-11055
his	-11056
hur	-11057
lee	-11058
oni	-11059
vol	-11060
zes	-11061
elop	-11062
enic	-11063
list	-11064
quis	-11065
ripp	-11066
roid	-11067
than	-11068
tsky	-11069
week	-11070
▁blu	-11071
▁dot	-11072
▁kem	-11073
▁mog	-11074
▁vib	-11075
deter	-11076
ensen	-11077
leton	-11078
peace	-11079
▁ally	-11080
▁boom	-11081
▁chal	-11082
▁cork	-11083
▁grac	-11084
▁hein	-11085
▁mang	-11086
▁mode	-11087
▁pobj	-11088
▁sept	-11089
▁shak	-11090
▁stab	-11091
▁vend	-11092
ateral	-11093
employ	-11094
placed	-11095
played	-11096
▁2016.	-11097
▁boxer	-11098
▁caste	-11099
▁disab	-11100
▁strat	-11101
minster	-11102
unction	-11103
▁absent	-11104
▁chains	-11105
▁detect	-11106
▁genius	-11107
▁hybrid	-11108
▁julian	-11109
▁listen	-11110
▁staged	-11111
▁versus	-11112
▁vulner	-11113
▁anticip	-11114
▁blocked	-11115
▁earning	-11116
▁hurling	-11117
▁involve	-11118
▁justify	-11119
▁manning	-11120
▁rivalry	-11121
▁affluent	-11122
▁arranged	-11123
▁cardinal	-11124
▁controll	-11125
▁displays	-11126
▁misunder	-11127
▁overcome	-11128
▁reducing	-11129
▁terminal	-11130
▁wrestler	-11131
▁abolished	-11132
▁bollywood	-11133
▁catalonia	-11134
▁contracts	-11135
▁directing	-11136
▁discrimin	-11137
▁pollution	-11138
▁unrelated	-11139
▁viewpoint	-11140
▁economists	-11141
▁healthcare	-11142
▁mysterious	-11143
▁prevention	-11144
▁queensland	-11145
▁devastating	-11146
▁disappeared	-11147
▁headquarter	-11148
▁manuscripts	-11149
▁breakthrough	-11150
▁denomination	-11151
▁expectations	-11152
mr	-11153
uf	-11154
zh	-11155
1).	-11156
avo	-11157
caa	-11158
cio	-11159
dal	-11160
hot	-11161
kov	-11162
lev	-11163
lus	-11164
▁$5	-11165
▁39	-11166
▁42	-11167
▁63	-11168
▁64	-11169
▁eb	-11170
▁nt	-11171
▁zo	-11172
-201	-11173
five	-11174
inks	-11175
oler	-11176
omed	-11177
rens	-11178
stop	-11179
ulum	-11180
▁chi	-11181
▁dio	-11182
▁hik	-11183
▁kan	-11184
▁vin	-11185
▁wag	-11186
▁wes	-11187
actic	-11188
anamo	-11189
annon	-11190
chair	-11191
creat	-11192
otive	-11193
stage	-11194
▁1912	-11195
▁1935	-11196
▁1937	-11197
▁1938	-11198
▁barr	-11199
▁bert	-11200
▁carn	-11201
▁cuis	-11202
▁epit	-11203
▁guev	-11204
▁hull	-11205
▁mikh	-11206
▁mori	-11207
▁nude	-11208
▁pund	-11209
▁sank	-11210
▁scre	-11211
▁sick	-11212
▁tian	-11213
▁tues	-11214
▁vick	-11215
▁wals	-11216
▁yard	-11217
eville	-11218
hebrew	-11219
icance	-11220
itated	-11221
public	-11222
scious	-11223
series	-11224
unders	-11225
▁1941.	-11226
▁1944)	-11227
▁1945)	-11228
▁1951)	-11229
▁1956,	-11230
▁1960)	-11231
▁1973,	-11232
▁1983.	-11233
▁absor	-11234
▁bench	-11235
▁betty	-11236
▁bulld	-11237
▁derby	-11238
▁eagle	-11239
▁emily	-11240
▁gains	-11241
▁glenn	-11242
▁grave	-11243
▁maine	-11244
▁ninth	-11245
▁oblig	-11246
▁posts	-11247
▁ranks	-11248
▁rated	-11249
▁rocks	-11250
▁rouge	-11251
▁skull	-11252
▁trick	-11253
▁wants	-11254
lection	-11255
▁arcade	-11256
▁ceased	-11257
▁durham	-11258
▁easier	-11259
▁entity	-11260
▁essays	-11261
▁fergus	-11262
▁hughes	-11263
▁ideals	-11264
▁improv	-11265
▁multic	-11266
▁napole	-11267
▁porter	-11268
▁presby	-11269
▁pseudo	-11270
▁sympat	-11271
▁traced	-11272
cription	-11273
▁burnett	-11274
▁confisc	-11275
▁conquer	-11276
▁cornell	-11277
▁deities	-11278
▁dissent	-11279
▁favored	-11280
▁periods	-11281
▁polygam	-11282
▁prosper	-11283
▁rejects	-11284
▁sending	-11285
▁tabloid	-11286
▁tuesday	-11287
▁variant	-11288
▁vermont	-11289
▁virtual	-11290
▁winners	-11291
▁yankees	-11292
▁brigades	-11293
▁diseases	-11294
▁faithful	-11295
▁hardware	-11296
▁informed	-11297
▁managing	-11298
▁observer	-11299
▁portland	-11300
▁reconcil	-11301
▁skeptics	-11302
▁tactical	-11303
▁thailand	-11304
▁tomatoes	-11305
▁belonging	-11306
▁defenders	-11307
▁depiction	-11308
▁engineers	-11309
▁europeans	-11310
▁governing	-11311
▁introduce	-11312
▁protested	-11313
▁reporters	-11314
▁sentiment	-11315
▁shortened	-11316
▁struggled	-11317
▁supremacy	-11318
▁touchdown	-11319
▁critically	-11320
▁demolition	-11321
▁greenhouse	-11322
▁huffington	-11323
▁petersburg	-11324
▁processing	-11325
▁referenced	-11326
▁repression	-11327
▁variations	-11328
▁brotherhood	-11329
▁contributor	-11330
▁countryside	-11331
▁crucifixion	-11332
▁culminating	-11333
▁electronics	-11334
▁entertainer	-11335
▁interactive	-11336
▁sensational	-11337
▁supremacist	-11338
▁universally	-11339
▁congregation	-11340
▁consequently	-11341
▁participants	-11342
▁significance	-11343
▁classification	-11344
▁philanthropist	-11345
cp	-11346
fu	-11347
dis	-11348
eit	-11349
fta	-11350
pol	-11351
sur	-11352
ulu	-11353
usa	-11354
zyn	-11355
araj	-11356
gone	-11357
hole	-11358
itus	-11359
very	-11360
▁aus	-11361
▁ced	-11362
▁psy	-11363
▁tyr	-11364
grand	-11365
odied	-11366
orate	-11367
watch	-11368
▁amod	-11369
▁asyl	-11370
▁bald	-11371
▁inev	-11372
▁spaw	-11373
▁ston	-11374
▁tamp	-11375
▁wiki	-11376
▁wore	-11377
accept	-11378
estone	-11379
inople	-11380
▁2017.	-11381
▁brist	-11382
▁cypri	-11383
▁derog	-11384
▁franz	-11385
▁freem	-11386
▁freud	-11387
▁hindi	-11388
▁intim	-11389
▁ready	-11390
▁renov	-11391
▁risks	-11392
▁sleep	-11393
▁tries	-11394
▁vener	-11395
▁widow	-11396
▁wives	-11397
islamic	-11398
▁assets	-11399
▁autumn	-11400
▁ballot	-11401
▁burned	-11402
▁burton	-11403
▁hemisp	-11404
▁infilt	-11405
▁insult	-11406
▁luxury	-11407
▁recapt	-11408
▁sharon	-11409
▁sheikh	-11410
japanese	-11411
▁answers	-11412
▁apology	-11413
▁banking	-11414
▁batista	-11415
▁broader	-11416
▁cinemat	-11417
▁depicts	-11418
▁iberian	-11419
▁lacking	-11420
▁legitim	-11421
▁literal	-11422
▁publish	-11423
▁reminis	-11424
▁sabbath	-11425
▁totally	-11426
▁villain	-11427
▁detained	-11428
▁entities	-11429
▁exciting	-11430
▁narrowly	-11431
▁premiers	-11432
▁reviewed	-11433
▁singular	-11434
▁unnecess	-11435
▁adventure	-11436
▁artillery	-11437
▁expanding	-11438
▁hostility	-11439
▁isolation	-11440
▁justified	-11441
▁prevalent	-11442
▁searching	-11443
▁shootings	-11444
▁consultant	-11445
▁identifies	-11446
▁israelites	-11447
▁kidnapping	-11448
▁conclusions	-11449
▁conservatism	-11450
▁presentation	-11451
▁intellectuals	-11452
▁interestingly	-11453
▁constantinople	-11454
.'	-11455
gm	-11456
ui	-11457
▁`	-11458
196	-11459
8).	-11460
big	-11461
bot	-11462
bow	-11463
eta	-11464
igo	-11465
irs	-11466
nik	-11467
oda	-11468
▁"3	-11469
▁$3	-11470
▁(9	-11471
▁49	-11472
▁65	-11473
▁bj	-11474
▁eh	-11475
▁uc	-11476
▁ud	-11477
-198	-11478
000,	-11479
anga	-11480
boro	-11481
esco	-11482
ibal	-11483
imar	-11484
ingo	-11485
irts	-11486
iyah	-11487
kers	-11488
lane	-11489
pent	-11490
prev	-11491
serv	-11492
size	-11493
umen	-11494
walk	-11495
will	-11496
▁dna	-11497
▁dos	-11498
▁gap	-11499
▁gop	-11500
▁gym	-11501
▁ket	-11502
▁lil	-11503
▁mcl	-11504
▁mik	-11505
▁twe	-11506
▁viv	-11507
▁wra	-11508
aware	-11509
chang	-11510
mania	-11511
psons	-11512
uthan	-11513
▁1870	-11514
▁1908	-11515
▁1925	-11516
▁baba	-11517
▁capp	-11518
▁dart	-11519
▁gate	-11520
▁grav	-11521
▁laur	-11522
▁luis	-11523
▁meth	-11524
▁outs	-11525
▁pand	-11526
▁peta	-11527
▁shin	-11528
▁tail	-11529
▁yass	-11530
active	-11531
choice	-11532
family	-11533
gerald	-11534
lessly	-11535
partic	-11536
preced	-11537
▁1958)	-11538
▁1963,	-11539
▁1969,	-11540
▁1970,	-11541
▁1971,	-11542
▁1972)	-11543
▁alpha	-11544
▁amiga	-11545
▁chaos	-11546
▁chuck	-11547
▁cyber	-11548
▁datab	-11549
▁debun	-11550
▁derek	-11551
▁devil	-11552
▁joyce	-11553
▁laure	-11554
▁lions	-11555
▁lucas	-11556
▁marry	-11557
▁pinoc	-11558
▁randy	-11559
▁retal	-11560
▁schum	-11561
▁sheff	-11562
▁walsh	-11563
writing	-11564
▁bachel	-11565
▁bolton	-11566
▁carson	-11567
▁corpus	-11568
▁eagles	-11569
▁edmund	-11570
▁fierce	-11571
▁herman	-11572
▁holmes	-11573
▁inject	-11574
▁insist	-11575
▁jeremy	-11576
▁johann	-11577
▁julius	-11578
▁kazakh	-11579
▁manage	-11580
▁nathan	-11581
▁pilots	-11582
▁powell	-11583
▁rhythm	-11584
▁savage	-11585
▁shrine	-11586
▁spaces	-11587
▁thesis	-11588
▁toured	-11589
▁towers	-11590
▁500,000	-11591
▁alberta	-11592
▁atheist	-11593
▁athlete	-11594
▁chilean	-11595
▁convinc	-11596
▁crossed	-11597
▁crucial	-11598
▁debated	-11599
▁dorothy	-11600
▁forever	-11601
▁frances	-11602
▁guevara	-11603
▁instant	-11604
▁jacques	-11605
▁madison	-11606
▁outcome	-11607
▁posting	-11608
▁privacy	-11609
▁sixteen	-11610
▁stretch	-11611
▁waiting	-11612
▁athletes	-11613
▁cornwall	-11614
▁facebook	-11615
▁feelings	-11616
▁friedman	-11617
▁murderer	-11618
▁paradise	-11619
▁portions	-11620
▁preacher	-11621
▁realized	-11622
▁seinfeld	-11623
▁wildlife	-11624
▁alcoholic	-11625
▁cleveland	-11626
▁donations	-11627
▁elaborate	-11628
▁forgotten	-11629
▁liberties	-11630
▁olbermann	-11631
▁processes	-11632
▁rejection	-11633
▁remainder	-11634
▁sanctions	-11635
▁successes	-11636
▁suspended	-11637
▁assessment	-11638
▁contestant	-11639
▁derogatory	-11640
▁difficulty	-11641
▁explicitly	-11642
▁guantanamo	-11643
▁innovation	-11644
▁misconduct	-11645
▁presidents	-11646
▁publishers	-11647
▁struggling	-11648
▁systematic	-11649
▁conferences	-11650
▁highlighted	-11651
▁interviewed	-11652
▁investigate	-11653
▁necessarily	-11654
▁reactionary	-11655
▁heterosexual	-11656
aic	-11657
pay	-11658
pow	-11659
was	-11660
▁('	-11661
beat	-11662
boys	-11663
ctor	-11664
dict	-11665
infl	-11666
last	-11667
loqu	-11668
oded	-11669
otes	-11670
phed	-11671
text	-11672
ulus	-11673
wear	-11674
▁fow	-11675
▁tie	-11676
▁ufo	-11677
▁umb	-11678
chers	-11679
month	-11680
▁cord	-11681
▁empt	-11682
▁fool	-11683
▁kann	-11684
▁mete	-11685
▁nons	-11686
▁torn	-11687
▁wait	-11688
review	-11689
rition	-11690
usting	-11691
▁casey	-11692
▁chron	-11693
▁edgar	-11694
▁email	-11695
▁favou	-11696
▁naomi	-11697
▁reass	-11698
▁torch	-11699
▁asylum	-11700
▁bailey	-11701
▁brands	-11702
▁diving	-11703
▁enjoys	-11704
▁hamlet	-11705
▁keynes	-11706
▁libyan	-11707
▁monroe	-11708
▁provoc	-11709
▁stress	-11710
▁unifor	-11711
▁update	-11712
riptions	-11713
▁avoided	-11714
▁chicken	-11715
▁chiefly	-11716
▁colloqu	-11717
▁courage	-11718
▁dynamic	-11719
▁generic	-11720
▁hitting	-11721
▁iceland	-11722
▁inquiry	-11723
▁insight	-11724
▁intoler	-11725
▁maximum	-11726
▁persona	-11727
▁utility	-11728
published	-11729
▁ancestor	-11730
▁competed	-11731
▁dialects	-11732
▁kingdoms	-11733
▁patriots	-11734
▁perceive	-11735
▁supplied	-11736
▁survival	-11737
▁withdraw	-11738
▁abrahamic	-11739
▁anonymous	-11740
▁armenians	-11741
▁artifacts	-11742
▁comparing	-11743
▁demanding	-11744
▁divisions	-11745
▁motivated	-11746
▁predicted	-11747
▁preferred	-11748
▁transcend	-11749
▁atrocities	-11750
▁compatible	-11751
▁credential	-11752
▁deliberate	-11753
▁destroying	-11754
▁emphasizes	-11755
▁infamously	-11756
▁arrangement	-11757
▁confederacy	-11758
▁dissolution	-11759
▁electricity	-11760
▁eliminating	-11761
▁exaggerated	-11762
▁neighboring	-11763
▁protestants	-11764
▁separatists	-11765
▁exploitation	-11766
▁philosophers	-11767
▁independently	-11768
▁interrogation	-11769
▁identification	-11770
▁neoconservative	-11771
rh	-11772
zs	-11773
-20	-11774
bah	-11775
gae	-11776
igs	-11777
inj	-11778
nai	-11779
ori	-11780
upe	-11781
yes	-11782
ync	-11783
▁4-	-11784
▁lp	-11785
▁va	-11786
auth	-11787
bron	-11788
city	-11789
erez	-11790
ilee	-11791
isen	-11792
itis	-11793
kien	-11794
lett	-11795
show	-11796
when	-11797
▁(13	-11798
▁120	-11799
▁155	-11800
▁700	-11801
▁hin	-11802
▁lac	-11803
▁mae	-11804
▁mug	-11805
▁neb	-11806
▁sop	-11807
anmen	-11808
assam	-11809
edict	-11810
ierra	-11811
inite	-11812
itals	-11813
iture	-11814
rates	-11815
stead	-11816
thood	-11817
tical	-11818
▁1916	-11819
▁aviv	-11820
▁benn	-11821
▁beta	-11822
▁bicy	-11823
▁cure	-11824
▁dioc	-11825
▁eleg	-11826
▁haun	-11827
▁leaf	-11828
▁mick	-11829
▁pose	-11830
▁quad	-11831
▁seiz	-11832
▁stub	-11833
▁zimb	-11834
inness	-11835
listed	-11836
rities	-11837
▁1962.	-11838
▁1980.	-11839
▁2006)	-11840
▁anger	-11841
▁bread	-11842
▁dolph	-11843
▁fifty	-11844
▁isles	-11845
▁kathy	-11846
▁layer	-11847
▁libya	-11848
▁parap	-11849
▁plaza	-11850
▁ranch	-11851
▁schem	-11852
▁sects	-11853
▁slang	-11854
▁tends	-11855
▁virus	-11856
▁amanda	-11857
▁asians	-11858
▁casino	-11859
▁covert	-11860
▁curric	-11861
▁duncan	-11862
▁geomet	-11863
▁hearts	-11864
▁immort	-11865
▁merged	-11866
▁parade	-11867
▁recall	-11868
▁romney	-11869
▁rounds	-11870
▁streak	-11871
▁thrown	-11872
▁undert	-11873
▁zimmer	-11874
ographed	-11875
▁appeals	-11876
▁artwork	-11877
▁beverly	-11878
▁bristol	-11879
▁cocaine	-11880
▁daytime	-11881
▁duchess	-11882
▁flowers	-11883
▁geology	-11884
▁montana	-11885
▁mothers	-11886
▁panther	-11887
▁rightly	-11888
▁storage	-11889
▁teaches	-11890
▁telecom	-11891
▁vaccine	-11892
astically	-11893
operation	-11894
▁absolute	-11895
▁africans	-11896
▁boarding	-11897
▁clinical	-11898
▁colonies	-11899
▁engaging	-11900
▁fairness	-11901
▁grandson	-11902
▁psychoan	-11903
▁salvador	-11904
▁simpsons	-11905
▁squadron	-11906
▁symphony	-11907
▁theodore	-11908
previously	-11909
▁abortions	-11910
▁asserting	-11911
▁barbarian	-11912
▁canonical	-11913
▁chemistry	-11914
▁creatures	-11915
▁falklands	-11916
▁feminists	-11917
▁headlines	-11918
▁intercept	-11919
▁migration	-11920
▁presbyter	-11921
▁absolutely	-11922
▁acceptable	-11923
▁chronicles	-11924
▁complained	-11925
▁fitzgerald	-11926
▁indicating	-11927
▁insurgency	-11928
▁oppression	-11929
▁successive	-11930
▁unofficial	-11931
▁collections	-11932
▁definitions	-11933
▁foundations	-11934
▁prohibition	-11935
▁reformation	-11936
▁accidentally	-11937
▁associations	-11938
▁dramatically	-11939
▁temperatures	-11940
▁headquartered	-11941
▁multicultural	-11942
▁archaeological	-11943
')	-11944
48	-11945
oj	-11946
aan	-11947
bir	-11948
fly	-11949
fre	-11950
▁gy	-11951
▁tm	-11952
achi	-11953
alam	-11954
andy	-11955
card	-11956
club	-11957
eper	-11958
film	-11959
iary	-11960
lean	-11961
only	-11962
riac	-11963
rift	-11964
▁hil	-11965
▁oct	-11966
▁pup	-11967
asive	-11968
estan	-11969
ioned	-11970
izers	-11971
sized	-11972
stant	-11973
techn	-11974
▁elim	-11975
▁fold	-11976
▁font	-11977
▁frit	-11978
▁impe	-11979
▁leng	-11980
▁sear	-11981
▁shat	-11982
▁wade	-11983
anians	-11984
icable	-11985
▁allah	-11986
▁doesn	-11987
▁ferry	-11988
▁fetus	-11989
▁hopes	-11990
▁manch	-11991
▁melan	-11992
▁realm	-11993
▁satan	-11994
▁siles	-11995
▁vegan	-11996
▁waves	-11997
covered	-11998
opathic	-11999
▁assume	-12000
▁duties	-12001
▁housed	-12002
▁induct	-12003
▁metaph	-12004
▁plates	-12005
▁puppet	-12006
▁remake	-12007
▁repair	-12008
▁resist	-12009
▁satisf	-12010
▁turkic	-12011
▁varied	-12012
▁visits	-12013
▁brahmin	-12014
▁coaches	-12015
▁confron	-12016
▁consort	-12017
▁escaped	-12018
▁mercury	-12019
▁prostit	-12020
▁shorter	-12021
▁silence	-12022
▁spirits	-12023
▁vampire	-12024
religious	-12025
▁astronom	-12026
▁belonged	-12027
▁fortress	-12028
▁hijacked	-12029
▁maritime	-12030
▁mcdonald	-12031
▁passages	-12032
▁portrays	-12033
▁recovery	-12034
▁saunders	-12035
▁sometime	-12036
▁affection	-12037
▁combining	-12038
▁disappear	-12039
▁friedrich	-12040
▁inflation	-12041
▁insurgent	-12042
▁possessed	-12043
▁radiation	-12044
▁reservoir	-12045
▁sacrifice	-12046
▁skeptical	-12047
▁theorists	-12048
▁tolerance	-12049
▁hemisphere	-12050
▁inaccurate	-12051
▁laboratory	-12052
▁litigation	-12053
▁protesting	-12054
▁substitute	-12055
▁venezuelan	-12056
particularly	-12057
▁threatening	-12058
▁controversies	-12059
▁participating	-12060
▁groundbreaking	-12061
36	-12062
eu	-12063
6).	-12064
bad	-12065
fus	-12066
hav	-12067
iba	-12068
ifa	-12069
mob	-12070
nar	-12071
oub	-12072
ovy	-12073
pot	-12074
tat	-12075
yen	-12076
▁(8	-12077
▁56	-12078
▁62	-12079
▁gw	-12080
▁mm	-12081
aise	-12082
alus	-12083
apes	-12084
blue	-12085
bone	-12086
ctic	-12087
doch	-12088
fair	-12089
hart	-12090
iani	-12091
ipei	-12092
olia	-12093
rano	-12094
ucks	-12095
uras	-12096
xide	-12097
▁aar	-12098
▁bsd	-12099
▁cob	-12100
▁hod	-12101
▁lah	-12102
▁lex	-12103
▁liz	-12104
▁nur	-12105
▁pag	-12106
▁sas	-12107
▁taj	-12108
▁xvi	-12109
about	-12110
asted	-12111
death	-12112
ector	-12113
fight	-12114
illas	-12115
illic	-12116
keley	-12117
olete	-12118
plete	-12119
ppers	-12120
range	-12121
rises	-12122
ulent	-12123
▁(188	-12124
▁1905	-12125
▁1927	-12126
▁1934	-12127
▁bast	-12128
▁bats	-12129
▁bess	-12130
▁caes	-12131
▁cere	-12132
▁eden	-12133
▁flex	-12134
▁hole	-12135
▁mend	-12136
▁ncaa	-12137
▁nest	-12138
▁nose	-12139
▁rely	-12140
▁scan	-12141
▁seam	-12142
▁sued	-12143
▁tape	-12144
▁ucla	-12145
aments	-12146
berman	-12147
boards	-12148
dinand	-12149
enment	-12150
gomery	-12151
omatic	-12152
palest	-12153
people	-12154
screen	-12155
solini	-12156
tanbul	-12157
tenham	-12158
▁1946,	-12159
▁1950)	-12160
▁1954)	-12161
▁1964,	-12162
▁1966)	-12163
▁1980)	-12164
▁1985.	-12165
▁basin	-12166
▁bills	-12167
▁birds	-12168
▁blogs	-12169
▁burke	-12170
▁caval	-12171
▁cloud	-12172
▁colum	-12173
▁delta	-12174
▁funny	-12175
▁heath	-12176
▁merit	-12177
▁metro	-12178
▁patch	-12179
▁remix	-12180
▁steal	-12181
▁stick	-12182
▁swami	-12183
▁wells	-12184
▁wings	-12185
british	-12186
cashire	-12187
fielder	-12188
ogether	-12189
violent	-12190
▁define	-12191
▁denoun	-12192
▁denver	-12193
▁dinner	-12194
▁drinks	-12195
▁elaine	-12196
▁expose	-12197
▁forbes	-12198
▁fundra	-12199
▁gothic	-12200
▁grants	-12201
▁joshua	-12202
▁marina	-12203
▁mentor	-12204
▁mutual	-12205
▁nickel	-12206
▁pulled	-12207
▁pushed	-12208
▁reluct	-12209
▁rifles	-12210
▁roland	-12211
▁seeing	-12212
▁subsid	-12213
▁ticket	-12214
▁willie	-12215
partisan	-12216
▁baptism	-12217
▁bureauc	-12218
▁capitol	-12219
▁centres	-12220
▁closest	-12221
▁dawkins	-12222
▁default	-12223
▁electro	-12224
▁erected	-12225
▁evident	-12226
▁formats	-12227
▁lasting	-12228
▁linking	-12229
▁messian	-12230
▁mikhail	-12231
▁murdoch	-12232
▁regimes	-12233
▁relates	-12234
▁returns	-12235
▁shepher	-12236
▁stephan	-12237
▁subsidi	-12238
▁surpass	-12239
▁tolkien	-12240
▁unarmed	-12241
▁wherein	-12242
tradition	-12243
▁accusing	-12244
▁bankrupt	-12245
▁benedict	-12246
▁berkeley	-12247
▁bloggers	-12248
▁commerce	-12249
▁corporal	-12250
▁educator	-12251
▁equipped	-12252
▁eugenics	-12253
▁flagship	-12254
▁griffith	-12255
▁honorary	-12256
▁ignoring	-12257
▁istanbul	-12258
▁obsolete	-12259
▁pinochet	-12260
▁pregnant	-12261
▁produces	-12262
▁pulitzer	-12263
▁switched	-12264
▁teenager	-12265
▁unemploy	-12266
▁unfairly	-12267
▁achieving	-12268
▁actresses	-12269
▁addresses	-12270
▁composers	-12271
▁computing	-12272
▁depending	-12273
▁disorders	-12274
▁ferdinand	-12275
▁inception	-12276
▁macintosh	-12277
▁mandatory	-12278
▁mussolini	-12279
▁reasoning	-12280
▁salvation	-12281
▁sentences	-12282
▁sheffield	-12283
established	-12284
▁completing	-12285
▁complexity	-12286
▁confidence	-12287
▁contribute	-12288
▁dictionary	-12289
▁expressing	-12290
▁intentions	-12291
▁lancashire	-12292
▁monitoring	-12293
▁montgomery	-12294
▁preventing	-12295
▁prosecutor	-12296
▁scriptures	-12297
▁thereafter	-12298
▁underlying	-12299
▁viewpoints	-12300
▁celebration	-12301
▁celebrities	-12302
▁conventions	-12303
▁exceptional	-12304
▁initiatives	-12305
▁photography	-12306
▁transgender	-12307
▁competitions	-12308
▁conversation	-12309
▁correspondent	-12310
▁characteristic	-12311
▁czechoslovakia	-12312
65	-12313
ea	-12314
ags	-12315
cod	-12316
dec	-12317
▁aj	-12318
▁cs	-12319
▁fi	-12320
acon	-12321
cill	-12322
icon	-12323
izza	-12324
lesh	-12325
omen	-12326
plan	-12327
unal	-12328
▁ana	-12329
▁bio	-12330
▁lia	-12331
allah	-12332
ecost	-12333
imely	-12334
isers	-12335
ratic	-12336
speed	-12337
▁1932	-12338
▁bail	-12339
▁bris	-12340
▁kang	-12341
▁monk	-12342
▁nova	-12343
▁odds	-12344
▁rall	-12345
▁sult	-12346
ficial	-12347
ophile	-12348
ulates	-12349
▁1977,	-12350
▁affir	-12351
▁aryan	-12352
▁dealt	-12353
▁flaws	-12354
▁graff	-12355
▁mobil	-12356
▁owing	-12357
▁retro	-12358
▁tours	-12359
eastern	-12360
muslims	-12361
ocument	-12362
prising	-12363
version	-12364
▁albeit	-12365
▁aliens	-12366
▁barely	-12367
▁copied	-12368
▁cultiv	-12369
▁decree	-12370
▁locals	-12371
▁motors	-12372
▁precip	-12373
▁quotes	-12374
▁repeal	-12375
▁rulers	-12376
▁saving	-12377
▁traces	-12378
friendly	-12379
▁acceler	-12380
▁airstri	-12381
▁custody	-12382
▁delayed	-12383
▁gabriel	-12384
▁honored	-12385
▁martyrs	-12386
▁varying	-12387
istically	-12388
▁attracts	-12389
▁autonomy	-12390
▁avengers	-12391
▁charming	-12392
▁divorced	-12393
▁drawings	-12394
▁explorer	-12395
▁headline	-12396
▁segments	-12397
▁untimely	-12398
▁breakfast	-12399
▁communion	-12400
▁detailing	-12401
▁dominance	-12402
▁ethnicity	-12403
▁improving	-12404
▁masculine	-12405
▁panoramic	-12406
information	-12407
▁commitment	-12408
▁misleading	-12409
▁overturned	-12410
▁performers	-12411
conservative	-12412
▁advancement	-12413
▁campaigning	-12414
▁credentials	-12415
▁protagonist	-12416
▁reminiscent	-12417
▁westminster	-12418
▁professionals	-12419
77	-12420
DE	-12421
pm	-12422
tc	-12423
▁{	-12424
DET	-12425
abs	-12426
aho	-12427
bsd	-12428
cci	-12429
eli	-12430
eve	-12431
gio	-12432
iri	-12433
lex	-12434
nip	-12435
rik	-12436
say	-12437
tre	-12438
▁78	-12439
▁9.	-12440
▁mt	-12441
▁ni	-12442
appy	-12443
atta	-12444
avia	-12445
avor	-12446
look	-12447
nity	-12448
oshi	-12449
otto	-12450
oway	-12451
sing	-12452
untu	-12453
▁10%	-12454
▁154	-12455
▁160	-12456
▁DET	-12457
▁ayn	-12458
▁cec	-12459
▁dad	-12460
▁das	-12461
▁dow	-12462
▁gan	-12463
▁kol	-12464
▁lon	-12465
▁mau	-12466
▁plo	-12467
▁rup	-12468
▁tac	-12469
▁xii	-12470
child	-12471
endar	-12472
etary	-12473
helps	-12474
inary	-12475
ittle	-12476
lined	-12477
marks	-12478
ogues	-12479
third	-12480
uters	-12481
yllis	-12482
▁1895	-12483
▁1931	-12484
▁blow	-12485
▁bold	-12486
▁brew	-12487
▁burg	-12488
▁duck	-12489
▁grid	-12490
▁hawk	-12491
▁howe	-12492
▁pamp	-12493
▁peas	-12494
▁pock	-12495
▁pole	-12496
▁pont	-12497
▁recl	-12498
▁seed	-12499
▁spam	-12500
▁wemb	-12501
alling	-12502
artney	-12503
chanan	-12504
nesday	-12505
▁1959,	-12506
▁1970.	-12507
▁1977)	-12508
▁1985,	-12509
▁1987.	-12510
▁2001)	-12511
▁aided	-12512
▁ammun	-12513
▁blame	-12514
▁bloom	-12515
▁cameo	-12516
▁costa	-12517
▁drake	-12518
▁flags	-12519
▁fuels	-12520
▁ghana	-12521
▁hicks	-12522
▁kenya	-12523
▁klein	-12524
▁msnbc	-12525
▁nicol	-12526
▁penis	-12527
▁relat	-12528
▁seced	-12529
▁thumb	-12530
▁tight	-12531
▁voter	-12532
▁wreck	-12533
osaurus	-12534
univers	-12535
▁amazon	-12536
▁atomic	-12537
▁barrel	-12538
▁desper	-12539
▁exclud	-12540
▁falcon	-12541
▁freely	-12542
▁galaxy	-12543
▁gifted	-12544
▁guides	-12545
▁ingred	-12546
▁medals	-12547
▁merger	-12548
▁metall	-12549
▁midway	-12550
▁mighty	-12551
▁pirate	-12552
▁rabbin	-12553
▁reggae	-12554
▁romans	-12555
▁syriac	-12556
▁taipei	-12557
▁wolver	-12558
▁100,000	-12559
▁advisor	-12560
▁contend	-12561
▁cuisine	-12562
▁damages	-12563
▁genuine	-12564
▁grammat	-12565
▁hampton	-12566
▁harbour	-12567
▁lucille	-12568
▁miranda	-12569
▁phyllis	-12570
▁plagiar	-12571
▁planted	-12572
▁predict	-12573
▁referee	-12574
▁resides	-12575
▁shirley	-12576
▁sorcery	-12577
▁winston	-12578
ibilities	-12579
▁abdullah	-12580
▁abstract	-12581
▁audition	-12582
▁cambodia	-12583
▁caucasus	-12584
▁certific	-12585
▁database	-12586
▁eligible	-12587
▁generous	-12588
▁lectures	-12589
▁marching	-12590
▁midnight	-12591
▁moreover	-12592
▁pentagon	-12593
▁performs	-12594
▁playoffs	-12595
▁prospect	-12596
▁rebuttal	-12597
▁rendered	-12598
▁reversed	-12599
▁scandals	-12600
▁stronger	-12601
▁traveled	-12602
▁troubles	-12603
▁unpreced	-12604
generation	-12605
▁charities	-12606
▁comprises	-12607
▁cosmology	-12608
▁dissolved	-12609
▁gathering	-12610
▁hierarchy	-12611
▁katherine	-12612
▁manifesto	-12613
▁nashville	-12614
▁obviously	-12615
▁proposals	-12616
▁taiwanese	-12617
▁wednesday	-12618
▁alexandria	-12619
▁approached	-12620
▁cartoonist	-12621
▁ceremonies	-12622
▁complement	-12623
▁continuous	-12624
▁culminated	-12625
▁discussing	-12626
▁exceptions	-12627
▁kilometers	-12628
▁pejorative	-12629
▁physically	-12630
▁practicing	-12631
▁preference	-12632
▁respective	-12633
▁solidarity	-12634
▁supplement	-12635
▁acquisition	-12636
▁chamberlain	-12637
▁grandmother	-12638
▁prominently	-12639
▁trafficking	-12640
▁cancellation	-12641
▁infringement	-12642
▁preservation	-12643
▁administrator	-12644
▁confederation	-12645
▁demonstrating	-12646
▁effectiveness	-12647
▁pseudoscience	-12648
▁disappointment	-12649
▁professionally	-12650
▁unconstitution	-12651
ady	-12652
aid	-12653
chy	-12654
due	-12655
has	-12656
ogs	-12657
▁hi	-12658
▁zh	-12659
atis	-12660
gger	-12661
hell	-12662
love	-12663
oria	-12664
ouch	-12665
rank	-12666
stud	-12667
uble	-12668
wind	-12669
▁bnp	-12670
▁enh	-12671
▁hed	-12672
▁hir	-12673
▁kun	-12674
▁orn	-12675
▁ras	-12676
▁tut	-12677
bound	-12678
esome	-12679
inced	-12680
overs	-12681
▁beth	-12682
▁bulk	-12683
▁clif	-12684
▁dwar	-12685
▁foul	-12686
▁hook	-12687
▁mate	-12688
▁mumb	-12689
▁neol	-12690
▁oath	-12691
▁worn	-12692
ailing	-12693
french	-12694
▁cells	-12695
▁chore	-12696
▁fores	-12697
▁hypoc	-12698
▁numer	-12699
▁pizza	-12700
▁prote	-12701
▁tales	-12702
▁tiger	-12703
▁vigil	-12704
▁demise	-12705
▁devout	-12706
▁famine	-12707
▁hailed	-12708
▁hatred	-12709
▁herald	-12710
▁honors	-12711
▁oblast	-12712
▁oversh	-12713
▁satire	-12714
▁segreg	-12715
▁stored	-12716
abortion	-12717
daughter	-12718
▁combine	-12719
▁dismant	-12720
▁drafted	-12721
▁elderly	-12722
▁enhance	-12723
▁females	-12724
▁illegit	-12725
▁intimid	-12726
▁marxism	-12727
▁pursuit	-12728
▁revived	-12729
▁servers	-12730
▁talking	-12731
▁tonight	-12732
▁tremend	-12733
▁boundary	-12734
▁councill	-12735
▁discoura	-12736
▁explored	-12737
▁indirect	-12738
▁inferior	-12739
▁lutheran	-12740
▁payments	-12741
▁residing	-12742
▁russians	-12743
▁sanskrit	-12744
▁collapsed	-12745
▁convinced	-12746
▁favourite	-12747
▁inhabited	-12748
▁prejudice	-12749
▁targeting	-12750
▁teenagers	-12751
▁capitalist	-12752
▁irrational	-12753
▁neighbours	-12754
▁physicians	-12755
▁suppressed	-12756
▁chairperson	-12757
▁complicated	-12758
▁exploration	-12759
▁premiership	-12760
determination	-12761
▁monotheistic	-12762
▁pornographic	-12763
▁confrontation	-12764
62	-12765
78	-12766
lf	-12767
mn	-12768
00,	-12769
cht	-12770
jad	-12771
kon	-12772
lib	-12773
nas	-12774
oro	-12775
rov	-12776
▁55	-12777
▁66	-12778
▁np	-12779
▁rt	-12780
▁sg	-12781
appa	-12782
aran	-12783
base	-12784
chez	-12785
cola	-12786
coni	-12787
ects	-12788
etti	-12789
folk	-12790
icia	-12791
omon	-12792
opot	-12793
sons	-12794
wait	-12795
what	-12796
{{}}	-12797
▁16.	-12798
▁ard	-12799
▁aur	-12800
▁bub	-12801
▁dei	-12802
▁fay	-12803
▁fry	-12804
▁maz	-12805
▁nhl	-12806
▁nie	-12807
▁pog	-12808
▁rex	-12809
▁rut	-12810
▁smo	-12811
▁ssr	-12812
▁yah	-12813
along	-12814
anton	-12815
arcer	-12816
guard	-12817
iates	-12818
igham	-12819
illon	-12820
imity	-12821
inson	-12822
never	-12823
▁1923	-12824
▁1926	-12825
▁amal	-12826
▁berg	-12827
▁blan	-12828
▁bout	-12829
▁crom	-12830
▁fing	-12831
▁heal	-12832
▁hire	-12833
▁joel	-12834
▁keys	-12835
▁klux	-12836
▁koch	-12837
▁mull	-12838
▁oliv	-12839
▁rebe	-12840
▁roof	-12841
▁sexy	-12842
▁snip	-12843
▁soup	-12844
▁subl	-12845
▁veto	-12846
▁wasn	-12847
connor	-12848
gencio	-12849
iating	-12850
iments	-12851
opotam	-12852
second	-12853
spring	-12854
▁1944,	-12855
▁1947,	-12856
▁1959.	-12857
▁1960,	-12858
▁1967)	-12859
▁1971.	-12860
▁1977.	-12861
▁1978.	-12862
▁1984)	-12863
▁1988)	-12864
▁2007)	-12865
▁barra	-12866
▁bates	-12867
▁boost	-12868
▁booth	-12869
▁brady	-12870
▁candy	-12871
▁carth	-12872
▁coerc	-12873
▁decay	-12874
▁donna	-12875
▁irred	-12876
▁irreg	-12877
▁jesse	-12878
▁navig	-12879
▁nephe	-12880
▁nikol	-12881
▁quote	-12882
▁salad	-12883
▁sixty	-12884
▁sofia	-12885
▁surve	-12886
▁tasks	-12887
▁unint	-12888
▁vaugh	-12889
▁volks	-12890
▁wendy	-12891
ductive	-12892
ourable	-12893
terbury	-12894
without	-12895
▁absurd	-12896
▁alaska	-12897
▁antiqu	-12898
▁bomber	-12899
▁brings	-12900
▁claire	-12901
▁clarke	-12902
▁cleans	-12903
▁cotton	-12904
▁easter	-12905
▁euthan	-12906
▁hebron	-12907
▁hollow	-12908
▁jackie	-12909
▁jesuit	-12910
▁legion	-12911
▁maiden	-12912
▁mirror	-12913
▁nikola	-12914
▁panama	-12915
▁phelps	-12916
▁replay	-12917
▁sample	-12918
▁sandra	-12919
▁sierra	-12920
▁summar	-12921
▁talmud	-12922
▁tucker	-12923
▁ubuntu	-12924
▁venues	-12925
▁augusto	-12926
▁bolivia	-12927
▁browser	-12928
▁colbert	-12929
▁crushed	-12930
▁fastest	-12931
▁fitness	-12932
▁jamaica	-12933
▁logical	-12934
▁mounted	-12935
▁nursing	-12936
▁premium	-12937
▁resembl	-12938
▁rudolph	-12939
▁schemes	-12940
▁shelter	-12941
▁somalia	-12942
▁summary	-12943
▁tribune	-12944
▁vessels	-12945
▁wembley	-12946
isticated	-12947
▁adequate	-12948
▁belgrade	-12949
▁brighton	-12950
▁canceled	-12951
▁classics	-12952
▁compiled	-12953
▁everyday	-12954
▁explores	-12955
▁ferguson	-12956
▁fourteen	-12957
▁freedoms	-12958
▁frontier	-12959
▁gameplay	-12960
▁invading	-12961
▁junction	-12962
▁limiting	-12963
▁marketed	-12964
▁matthews	-12965
▁objected	-12966
▁profound	-12967
▁reflects	-12968
▁shepherd	-12969
▁superman	-12970
▁supplies	-12971
▁throwing	-12972
▁visiting	-12973
▁zimbabwe	-12974
▁aesthetic	-12975
▁erroneous	-12976
▁fulgencio	-12977
▁launching	-12978
▁libraries	-12979
▁nightclub	-12980
▁pentecost	-12981
▁prompting	-12982
▁proximity	-12983
▁sequences	-12984
▁uncertain	-12985
educational	-12986
▁accordance	-12987
▁affordable	-12988
▁ammunition	-12989
▁authorized	-12990
▁categories	-12991
▁colleagues	-12992
▁commanders	-12993
▁completion	-12994
▁constantly	-12995
▁contention	-12996
▁curriculum	-12997
▁ideologies	-12998
▁inherently	-12999
▁subsidiary	-13000
▁surprising	-13001
▁affirmative	-13002
▁heavyweight	-13003
▁illustrator	-13004
▁overlooking	-13005
▁springfield	-13006
▁sympathetic	-13007
▁announcement	-13008
▁considerably	-13009
▁constituency	-13010
▁misrepresent	-13011
▁missionaries	-13012
▁presbyterian	-13013
▁resurrection	-13014
▁inappropriate	-13015
▁unprecedented	-13016
▁advertisements	-13017
▁correspondence	-13018
▁accomplishments	-13019
64	-13020
oi	-13021
px	-13022
-12	-13023
cul	-13024
irt	-13025
lds	-13026
mur	-13027
tun	-13028
ulg	-13029
utt	-13030
▁og	-13031
achs	-13032
affe	-13033
ayev	-13034
cult	-13035
grim	-13036
mish	-13037
ogyn	-13038
opes	-13039
ptic	-13040
▁bip	-13041
▁dry	-13042
▁kab	-13043
▁kau	-13044
▁raz	-13045
arest	-13046
comes	-13047
eting	-13048
ouche	-13049
riage	-13050
stars	-13051
▁1901	-13052
▁butt	-13053
▁buzz	-13054
▁cite	-13055
▁coss	-13056
▁depr	-13057
▁dign	-13058
▁disl	-13059
▁fare	-13060
▁fert	-13061
▁forc	-13062
▁giul	-13063
▁ltte	-13064
▁math	-13065
▁pump	-13066
▁scat	-13067
▁succ	-13068
asters	-13069
chedel	-13070
hement	-13071
osaurs	-13072
utable	-13073
verted	-13074
▁1961,	-13075
▁allan	-13076
▁arche	-13077
▁disgu	-13078
▁drift	-13079
▁libel	-13080
▁solic	-13081
▁spill	-13082
▁troll	-13083
▁undes	-13084
founded	-13085
▁adoles	-13086
▁arnold	-13087
▁blocks	-13088
▁blonde	-13089
▁client	-13090
▁liquid	-13091
▁overly	-13092
▁persia	-13093
▁pretty	-13094
▁retain	-13095
▁tactic	-13096
▁teresa	-13097
▁warned	-13098
▁wisdom	-13099
essional	-13100
independ	-13101
▁alleges	-13102
▁columns	-13103
▁compuls	-13104
▁defunct	-13105
▁emotion	-13106
▁feeling	-13107
▁misogyn	-13108
▁natives	-13109
▁talents	-13110
▁trouble	-13111
▁disabled	-13112
▁discount	-13113
▁donation	-13114
▁immortal	-13115
▁lobbying	-13116
▁prussian	-13117
▁strictly	-13118
▁supervis	-13119
▁tribunal	-13120
▁unauthor	-13121
▁welcomed	-13122
▁dominican	-13123
▁explosive	-13124
▁massacred	-13125
▁mechanics	-13126
▁specified	-13127
▁unanimous	-13128
▁violinist	-13129
▁competitor	-13130
▁disability	-13131
▁motorcycle	-13132
▁percussion	-13133
▁azerbaijani	-13134
▁elimination	-13135
▁encouraging	-13136
▁originating	-13137
▁specialized	-13138
▁collaborated	-13139
▁condemnation	-13140
▁governmental	-13141
▁implications	-13142
▁enlightenment	-13143
▁justification	-13144
!,	-13145
38	-13146
dh	-13147
gg	-13148
ku	-13149
py	-13150
▁<	-13151
100	-13152
5).	-13153
7).	-13154
9).	-13155
awi	-13156
dar	-13157
dez	-13158
fem	-13159
inf	-13160
inv	-13161
ipa	-13162
mos	-13163
omo	-13164
rab	-13165
str	-13166
sum	-13167
tit	-13168
▁41	-13169
▁54	-13170
▁58	-13171
▁ae	-13172
▁hd	-13173
▁sz	-13174
▁yu	-13175
▁}}	-13176
arag	-13177
bach	-13178
dark	-13179
essa	-13180
este	-13181
indy	-13182
inum	-13183
lore	-13184
okie	-13185
plat	-13186
sten	-13187
ugee	-13188
▁1-0	-13189
▁140	-13190
▁18.	-13191
▁20%	-13192
▁30-	-13193
▁50%	-13194
▁afl	-13195
▁aub	-13196
▁awa	-13197
▁bav	-13198
▁clo	-13199
▁dob	-13200
▁dol	-13201
▁dum	-13202
▁ler	-13203
▁muk	-13204
▁nab	-13205
▁obe	-13206
▁piv	-13207
▁rib	-13208
-1990	-13209
2,000	-13210
anium	-13211
emann	-13212
greek	-13213
ipher	-13214
irish	-13215
linux	-13216
named	-13217
north	-13218
osure	-13219
rooms	-13220
since	-13221
south	-13222
swick	-13223
urred	-13224
▁(185	-13225
▁1000	-13226
▁1800	-13227
▁1913	-13228
▁1921	-13229
▁1922	-13230
▁3000	-13231
▁andr	-13232
▁brom	-13233
▁bros	-13234
▁deir	-13235
▁doug	-13236
▁encl	-13237
▁fost	-13238
▁glac	-13239
▁hiro	-13240
▁jong	-13241
▁kins	-13242
▁knee	-13243
▁lots	-13244
▁neut	-13245
▁nord	-13246
▁pace	-13247
▁pled	-13248
▁rodr	-13249
▁slot	-13250
▁triv	-13251
▁unil	-13252
▁unre	-13253
▁vaud	-13254
▁wart	-13255
adowed	-13256
charge	-13257
course	-13258
earing	-13259
estown	-13260
inally	-13261
ingham	-13262
oubted	-13263
prises	-13264
social	-13265
ulator	-13266
zynski	-13267
▁1917,	-13268
▁1939,	-13269
▁1943.	-13270
▁1947.	-13271
▁1955)	-13272
▁1958.	-13273
▁1961.	-13274
▁1968,	-13275
▁1973.	-13276
▁1981)	-13277
▁1987)	-13278
▁1989)	-13279
▁2002)	-13280
▁2003)	-13281
▁2008)	-13282
▁aaron	-13283
▁annoy	-13284
▁bless	-13285
▁brett	-13286
▁bulls	-13287
▁carne	-13288
▁chase	-13289
▁choir	-13290
▁creed	-13291
▁crist	-13292
▁crops	-13293
▁drown	-13294
▁eleph	-13295
▁empty	-13296
▁fewer	-13297
▁gould	-13298
▁hards	-13299
▁hatch	-13300
▁hoped	-13301
▁kumar	-13302
▁loren	-13303
▁loved	-13304
▁memph	-13305
▁midst	-13306
▁outer	-13307
▁prair	-13308
▁pyram	-13309
▁socio	-13310
▁stuff	-13311
▁stunt	-13312
▁tyler	-13313
▁yield	-13314
defense	-13315
faction	-13316
gements	-13317
iseries	-13318
keeping	-13319
▁abused	-13320
▁angela	-13321
▁apache	-13322
▁bombed	-13323
▁bonnie	-13324
▁convoy	-13325
▁counts	-13326
▁dakota	-13327
▁diller	-13328
▁enable	-13329
▁endang	-13330
▁finale	-13331
▁geneva	-13332
▁graves	-13333
▁hassan	-13334
▁heroin	-13335
▁holder	-13336
▁hunger	-13337
▁juliet	-13338
▁lankan	-13339
▁lennon	-13340
▁meteor	-13341
▁meters	-13342
▁metres	-13343
▁naming	-13344
▁nephew	-13345
▁newton	-13346
▁nicole	-13347
▁peaked	-13348
▁pierce	-13349
▁ranges	-13350
▁rooted	-13351
▁rovers	-13352
▁rumors	-13353
▁stroke	-13354
▁stupid	-13355
▁voiced	-13356
▁volcan	-13357
▁wilder	-13358
▁wilhel	-13359
▁wounds	-13360
▁yassin	-13361
building	-13362
commonly	-13363
▁andrews	-13364
▁brandon	-13365
▁brigham	-13366
▁cardiff	-13367
▁elegant	-13368
▁fathers	-13369
▁flights	-13370
▁handful	-13371
▁harding	-13372
▁immoral	-13373
▁implied	-13374
▁interim	-13375
▁krishna	-13376
▁kubrick	-13377
▁melissa	-13378
▁moldova	-13379
▁newslet	-13380
▁planets	-13381
▁prussia	-13382
▁rebecca	-13383
▁refugee	-13384
▁regards	-13385
▁samples	-13386
▁sanders	-13387
▁sherman	-13388
▁springs	-13389
▁trotsky	-13390
▁undergo	-13391
▁valerie	-13392
▁appealed	-13393
▁aviation	-13394
▁beverage	-13395
▁convince	-13396
▁cromwell	-13397
▁defining	-13398
▁enabling	-13399
▁falkland	-13400
▁incarcer	-13401
▁lawsuits	-13402
▁lecturer	-13403
▁napoleon	-13404
▁patricia	-13405
▁relevant	-13406
▁sinclair	-13407
▁stockhol	-13408
▁undermin	-13409
▁watching	-13410
▁advancing	-13411
▁ambitious	-13412
▁brunswick	-13413
▁christine	-13414
▁criminals	-13415
▁decorated	-13416
▁dependent	-13417
▁designers	-13418
▁discusses	-13419
▁lightning	-13420
▁massacres	-13421
▁mccartney	-13422
▁mechanism	-13423
▁preparing	-13424
▁presently	-13425
▁recruited	-13426
▁resembles	-13427
▁synagogue	-13428
▁telegraph	-13429
▁tiananmen	-13430
▁tottenham	-13431
▁traveling	-13432
▁undoubted	-13433
▁canterbury	-13434
▁compelling	-13435
▁conception	-13436
▁convenient	-13437
▁elementary	-13438
▁geographic	-13439
▁homophobia	-13440
▁midfielder	-13441
▁miniseries	-13442
▁qualifying	-13443
▁thankfully	-13444
▁beautifully	-13445
▁celebrating	-13446
▁constantine	-13447
▁contentious	-13448
▁departments	-13449
▁deportation	-13450
▁predictions	-13451
▁restrictive	-13452
▁revelations	-13453
▁sponsorship	-13454
▁investigators	-13455
▁neighbourhood	-13456
▁substantially	-13457
▁assassinations	-13458
RO	-13459
nu	-13460
ais	-13461
dig	-13462
obe	-13463
pac	-13464
wig	-13465
▁cc	-13466
aqsa	-13467
fold	-13468
iker	-13469
iler	-13470
iyya	-13471
phil	-13472
rise	-13473
spir	-13474
stat	-13475
tech	-13476
turk	-13477
uced	-13478
uits	-13479
unta	-13480
usty	-13481
▁800	-13482
▁ace	-13483
▁gul	-13484
▁hew	-13485
▁mud	-13486
▁rav	-13487
atics	-13488
derry	-13489
plane	-13490
rella	-13491
trans	-13492
ushed	-13493
▁adul	-13494
▁airs	-13495
▁bind	-13496
▁ende	-13497
▁flew	-13498
▁hast	-13499
▁pash	-13500
▁pyth	-13501
▁reli	-13502
▁skys	-13503
▁stig	-13504
▁sync	-13505
▁ther	-13506
▁tube	-13507
▁unst	-13508
atever	-13509
ennial	-13510
itably	-13511
▁accum	-13512
▁boats	-13513
▁chest	-13514
▁disco	-13515
▁ellis	-13516
▁fault	-13517
▁glory	-13518
▁heres	-13519
▁hyder	-13520
▁mills	-13521
▁phish	-13522
▁remed	-13523
▁sheep	-13524
comfort	-13525
elliger	-13526
spanish	-13527
ubstant	-13528
ulative	-13529
▁allege	-13530
▁balkan	-13531
▁canaan	-13532
▁cherry	-13533
▁denies	-13534
▁disill	-13535
▁embark	-13536
▁erotic	-13537
▁esther	-13538
▁fowler	-13539
▁impose	-13540
▁ladder	-13541
▁levant	-13542
▁mercen	-13543
▁mumbai	-13544
▁shalit	-13545
▁truman	-13546
▁unless	-13547
▁urging	-13548
▁volley	-13549
administ	-13550
ilingual	-13551
standard	-13552
▁carries	-13553
▁clashes	-13554
▁denying	-13555
▁engines	-13556
▁kannada	-13557
▁outdoor	-13558
▁reveals	-13559
▁sharply	-13560
▁spawned	-13561
▁warrant	-13562
americans	-13563
mentioned	-13564
▁bachelor	-13565
▁centrist	-13566
▁decisive	-13567
▁departed	-13568
▁emeritus	-13569
▁estimate	-13570
▁graffiti	-13571
▁homeless	-13572
▁horrific	-13573
▁preserve	-13574
▁refusing	-13575
▁rhetoric	-13576
▁suspects	-13577
▁vehement	-13578
proclaimed	-13579
▁assertion	-13580
▁chronicle	-13581
▁irregular	-13582
▁premature	-13583
▁psychedel	-13584
▁strengthe	-13585
▁campaigned	-13586
▁discontinu	-13587
▁disturbing	-13588
▁protecting	-13589
▁protestors	-13590
▁specialist	-13591
▁structural	-13592
▁suspension	-13593
▁anticipated	-13594
▁demographic	-13595
▁disillusion	-13596
▁londonderry	-13597
▁preparatory	-13598
▁reconstruct	-13599
▁suppression	-13600
▁transsexual	-13601
▁undoubtedly	-13602
▁antisemitism	-13603
▁colonization	-13604
▁commercially	-13605
▁illegitimate	-13606
▁registration	-13607
▁civilizations	-13608
▁congregations	-13609
▁reunification	-13610
▁cinematographer	-13611
28	-13612
33	-13613
dc	-13614
fr	-13615
kl	-13616
rn	-13617
vy	-13618
:00	-13619
aha	-13620
alm	-13621
icz	-13622
idy	-13623
iji	-13624
lis	-13625
osi	-13626
pes	-13627
pos	-13628
sim	-13629
six	-13630
sou	-13631
xon	-13632
zar	-13633
▁1:	-13634
▁2-	-13635
acks	-13636
airo	-13637
ardi	-13638
avan	-13639
boat	-13640
cath	-13641
empl	-13642
eson	-13643
eves	-13644
hara	-13645
heit	-13646
hill	-13647
inai	-13648
inte	-13649
iraq	-13650
mich	-13651
olar	-13652
reet	-13653
uria	-13654
▁101	-13655
▁164	-13656
▁165	-13657
▁23.	-13658
▁ank	-13659
▁egg	-13660
▁gem	-13661
▁kor	-13662
▁meh	-13663
▁mps	-13664
▁nig	-13665
▁pla	-13666
▁tub	-13667
▁usd	-13668
apart	-13669
asser	-13670
borne	-13671
chens	-13672
eanor	-13673
ester	-13674
eston	-13675
etown	-13676
happy	-13677
herty	-13678
imens	-13679
media	-13680
oline	-13681
rolls	-13682
three	-13683
▁1890	-13684
▁bike	-13685
▁deck	-13686
▁dock	-13687
▁doom	-13688
▁dres	-13689
▁fisc	-13690
▁gilg	-13691
▁hulk	-13692
▁joke	-13693
▁kane	-13694
▁laud	-13695
▁lill	-13696
▁mccl	-13697
▁noam	-13698
▁noel	-13699
▁patt	-13700
▁qing	-13701
▁saga	-13702
▁sind	-13703
▁stom	-13704
▁stun	-13705
▁tier	-13706
▁trin	-13707
▁unde	-13708
▁vine	-13709
▁yoga	-13710
▁zepp	-13711
center	-13712
itness	-13713
izable	-13714
rained	-13715
shaped	-13716
titled	-13717
utives	-13718
▁1938.	-13719
▁1942,	-13720
▁1953,	-13721
▁1956)	-13722
▁1959)	-13723
▁1990)	-13724
▁angry	-13725
▁bohem	-13726
▁bonus	-13727
▁brick	-13728
▁britt	-13729
▁cater	-13730
▁cheap	-13731
▁civic	-13732
▁clara	-13733
▁cliff	-13734
▁cryst	-13735
▁cults	-13736
▁cyril	-13737
▁diane	-13738
▁drove	-13739
▁epist	-13740
▁fatah	-13741
▁floyd	-13742
▁idaho	-13743
▁julie	-13744
▁kills	-13745
▁kyoto	-13746
▁lotus	-13747
▁malta	-13748
▁manit	-13749
▁minds	-13750
▁monks	-13751
▁nader	-13752
▁notre	-13753
▁paren	-13754
▁pipes	-13755
▁poets	-13756
▁pratt	-13757
▁quint	-13758
▁rises	-13759
▁rolls	-13760
▁rosem	-13761
▁sally	-13762
▁smoke	-13763
▁stall	-13764
▁tunes	-13765
▁uttar	-13766
▁versa	-13767
▁vince	-13768
atorial	-13769
ceptive	-13770
emption	-13771
ifiable	-13772
patible	-13773
▁andrea	-13774
▁autism	-13775
▁burial	-13776
▁cannon	-13777
▁canton	-13778
▁canyon	-13779
▁drives	-13780
▁dwight	-13781
▁eccles	-13782
▁exempl	-13783
▁fahren	-13784
▁flawed	-13785
▁flower	-13786
▁fuller	-13787
▁gracie	-13788
▁greens	-13789
▁hammer	-13790
▁humour	-13791
▁leslie	-13792
▁lifted	-13793
▁manson	-13794
▁mossad	-13795
▁pamela	-13796
▁ramsey	-13797
▁sermon	-13798
▁sicily	-13799
▁sophie	-13800
▁sphere	-13801
▁sultan	-13802
▁traded	-13803
▁trends	-13804
▁vienna	-13805
arianism	-13806
astrophe	-13807
junction	-13808
released	-13809
restrial	-13810
▁200,000	-13811
▁babylon	-13812
▁buckley	-13813
▁cavalry	-13814
▁clothes	-13815
▁compare	-13816
▁cruelty	-13817
▁defines	-13818
▁degener	-13819
▁dioxide	-13820
▁estates	-13821
▁expense	-13822
▁fischer	-13823
▁happily	-13824
▁knowing	-13825
▁licence	-13826
▁maurice	-13827
▁moments	-13828
▁monthly	-13829
▁multipl	-13830
▁options	-13831
▁paradox	-13832
▁rebuilt	-13833
▁ricardo	-13834
▁runners	-13835
▁sailing	-13836
▁salazar	-13837
▁shields	-13838
▁shooter	-13839
▁snowden	-13840
▁travels	-13841
▁warrior	-13842
▁watched	-13843
▁yeshiva	-13844
▁arriving	-13845
▁baroness	-13846
▁calendar	-13847
▁contents	-13848
▁crawford	-13849
▁deceased	-13850
▁foremost	-13851
▁generate	-13852
▁geoffrey	-13853
▁horowitz	-13854
▁horrible	-13855
▁infantry	-13856
▁invaders	-13857
▁liberate	-13858
▁mentally	-13859
▁modeling	-13860
▁morrison	-13861
▁nineteen	-13862
▁polygamy	-13863
▁praising	-13864
▁reliable	-13865
▁wireless	-13866
▁adventist	-13867
▁arbitrary	-13868
▁coastline	-13869
▁colonists	-13870
▁commodore	-13871
▁emergence	-13872
▁graduates	-13873
▁heretical	-13874
▁maharishi	-13875
▁messianic	-13876
▁preceding	-13877
▁princeton	-13878
▁projected	-13879
▁recession	-13880
▁retailers	-13881
▁ridiculed	-13882
▁sensation	-13883
▁travelled	-13884
▁varieties	-13885
▁accurately	-13886
▁allegation	-13887
▁approaches	-13888
▁authorship	-13889
▁beginnings	-13890
▁conducting	-13891
▁delegation	-13892
▁executives	-13893
▁fatalities	-13894
▁treatments	-13895
▁tremendous	-13896
governmental	-13897
▁backgrounds	-13898
▁creationist	-13899
▁encountered	-13900
▁helicopters	-13901
▁imperialism	-13902
▁incarnation	-13903
▁interaction	-13904
▁interrupted	-13905
▁introducing	-13906
▁limitations	-13907
▁livingstone	-13908
▁notoriously	-13909
▁questioning	-13910
▁resemblance	-13911
▁restriction	-13912
▁technically	-13913
▁unnecessary	-13914
▁authenticity	-13915
▁continuation	-13916
▁environments	-13917
▁photographed	-13918
▁proclamation	-13919
▁scandinavian	-13920
▁southwestern	-13921
▁unemployment	-13922
▁businesswoman	-13923
▁corresponding	-13924
▁disappearance	-13925
▁extermination	-13926
cra	-13927
eck	-13928
elt	-13929
enc	-13930
hof	-13931
oop	-13932
rot	-13933
ser	-13934
uli	-13935
▁ai	-13936
▁cf	-13937
▁iw	-13938
alis	-13939
arat	-13940
arin	-13941
bent	-13942
etta	-13943
horn	-13944
iast	-13945
insp	-13946
izon	-13947
rous	-13948
wife	-13949
▁alp	-13950
▁ern	-13951
▁lum	-13952
▁wiz	-13953
▁zen	-13954
anity	-13955
atile	-13956
books	-13957
drama	-13958
heads	-13959
ilder	-13960
isans	-13961
osity	-13962
ource	-13963
ourse	-13964
refer	-13965
▁1903	-13966
▁blat	-13967
▁cong	-13968
▁keen	-13969
▁lehi	-13970
▁lily	-13971
▁luft	-13972
▁mara	-13973
▁mega	-13974
▁rent	-13975
▁ugly	-13976
agraph	-13977
backed	-13978
ensely	-13979
esters	-13980
orical	-13981
orting	-13982
ranged	-13983
styled	-13984
urious	-13985
ysical	-13986
▁1941)	-13987
▁bafta	-13988
▁blake	-13989
▁blank	-13990
▁flesh	-13991
▁ineff	-13992
▁inequ	-13993
▁nepal	-13994
▁oasis	-13995
▁peers	-13996
▁scare	-13997
▁shiva	-13998
lements	-13999
ologism	-14000
▁boeing	-14001
▁chican	-14002
▁damasc	-14003
▁hiding	-14004
▁hijack	-14005
▁modest	-14006
▁patton	-14007
▁piracy	-14008
▁pounds	-14009
▁python	-14010
▁riders	-14011
▁schwar	-14012
▁smooth	-14013
▁speaks	-14014
▁torped	-14015
▁triang	-14016
▁worthy	-14017
ellation	-14018
function	-14019
renowned	-14020
▁acquire	-14021
▁android	-14022
▁apostle	-14023
▁compact	-14024
▁empress	-14025
▁fatally	-14026
▁fleeing	-14027
▁hanging	-14028
▁lineage	-14029
▁mistake	-14030
▁polling	-14031
▁proudly	-14032
▁rebuild	-14033
▁reputed	-14034
▁routine	-14035
▁somehow	-14036
▁staunch	-14037
▁theorem	-14038
▁aspiring	-14039
▁colorful	-14040
▁marginal	-14041
▁protects	-14042
▁regulate	-14043
▁resolved	-14044
▁thinkers	-14045
▁tortured	-14046
▁vacation	-14047
scientific	-14048
▁alexandra	-14049
▁cognitive	-14050
▁complaint	-14051
▁diagnosed	-14052
▁disciples	-14053
▁empirical	-14054
▁exploited	-14055
▁qualities	-14056
▁rendering	-14057
▁revealing	-14058
▁routinely	-14059
▁sensitive	-14060
▁strongest	-14061
▁undergone	-14062
▁antagonist	-14063
▁bankruptcy	-14064
▁comparable	-14065
▁homophobic	-14066
▁ministries	-14067
▁tendencies	-14068
▁thoroughly	-14069
▁businessmen	-14070
▁competitors	-14071
▁examination	-14072
▁improvement	-14073
▁macedonians	-14074
▁promotional	-14075
▁geographical	-14076
▁overshadowed	-14077
▁psychiatrist	-14078
▁investigative	-14079
▁reconciliation	-14080
66	-14081
93	-14082
cu	-14083
dn	-14084
hd	-14085
mc	-14086
sv	-14087
▁+	-14088
3).	-14089
aby	-14090
ahl	-14091
avi	-14092
bos	-14093
del	-14094
ecd	-14095
evi	-14096
had	-14097
hit	-14098
hrm	-14099
ido	-14100
ioc	-14101
isk	-14102
jim	-14103
luc	-14104
mem	-14105
neg	-14106
pin	-14107
rak	-14108
sil	-14109
ukh	-14110
umi	-14111
wat	-14112
zan	-14113
▁#2	-14114
▁68	-14115
▁mk	-14116
▁xp	-14117
ahan	-14118
akis	-14119
conf	-14120
conn	-14121
drop	-14122
ehan	-14123
elly	-14124
enty	-14125
eric	-14126
ffer	-14127
haus	-14128
iffe	-14129
irus	-14130
leen	-14131
leum	-14132
noon	-14133
quez	-14134
take	-14135
thel	-14136
udge	-14137
▁125	-14138
▁14.	-14139
▁16-	-14140
▁176	-14141
▁360	-14142
▁als	-14143
▁cen	-14144
▁drm	-14145
▁dys	-14146
▁gru	-14147
▁hes	-14148
▁jab	-14149
▁kas	-14150
▁lub	-14151
▁ner	-14152
▁oxy	-14153
▁pah	-14154
▁rhe	-14155
▁rip	-14156
▁roe	-14157
▁ruz	-14158
▁sci	-14159
▁tak	-14160
▁tul	-14161
▁ump	-14162
▁yus	-14163
antom	-14164
aryan	-14165
ayana	-14166
backs	-14167
broad	-14168
ducer	-14169
elfth	-14170
enues	-14171
ideen	-14172
iffer	-14173
inery	-14174
itted	-14175
rones	-14176
super	-14177
udeau	-14178
ugman	-14179
uliar	-14180
▁1898	-14181
▁1904	-14182
▁1936	-14183
▁abus	-14184
▁bain	-14185
▁bash	-14186
▁beef	-14187
▁beit	-14188
▁blas	-14189
▁boot	-14190
▁cubs	-14191
▁ehud	-14192
▁eich	-14193
▁evol	-14194
▁frag	-14195
▁gong	-14196
▁heir	-14197
▁hipp	-14198
▁insu	-14199
▁jure	-14200
▁kurt	-14201
▁lama	-14202
▁leis	-14203
▁lomb	-14204
▁lore	-14205
▁loud	-14206
▁malt	-14207
▁marl	-14208
▁mask	-14209
▁maya	-14210
▁memo	-14211
▁naum	-14212
▁omar	-14213
▁oslo	-14214
▁rash	-14215
▁remn	-14216
▁reyn	-14217
▁shab	-14218
▁sure	-14219
▁tons	-14220
▁tsar	-14221
▁viii	-14222
▁visa	-14223
▁wash	-14224
▁webb	-14225
▁wick	-14226
0,000.	-14227
advant	-14228
aragua	-14229
driven	-14230
giving	-14231
ogenic	-14232
opathy	-14233
school	-14234
▁1926)	-14235
▁1937)	-14236
▁1950,	-14237
▁1976)	-14238
▁1994)	-14239
▁2018.	-14240
▁abbas	-14241
▁aging	-14242
▁annie	-14243
▁antio	-14244
▁ariel	-14245
▁brass	-14246
▁bryan	-14247
▁carey	-14248
▁claud	-14249
▁defic	-14250
▁dirty	-14251
▁doors	-14252
▁fairy	-14253
▁fanny	-14254
▁fount	-14255
▁greed	-14256
▁hanna	-14257
▁lance	-14258
▁leigh	-14259
▁lunch	-14260
▁mafia	-14261
▁manor	-14262
▁marco	-14263
▁morph	-14264
▁nurse	-14265
▁pamph	-14266
▁proto	-14267
▁punch	-14268
▁raids	-14269
▁shark	-14270
▁sinai	-14271
▁slavs	-14272
▁smugg	-14273
▁tampa	-14274
▁tapes	-14275
▁tenth	-14276
▁threw	-14277
▁umayy	-14278
▁unequ	-14279
▁urged	-14280
▁urugu	-14281
▁viral	-14282
ensions	-14283
ounters	-14284
▁beside	-14285
▁boards	-14286
▁caesar	-14287
▁chiefs	-14288
▁chorus	-14289
▁circus	-14290
▁clause	-14291
▁connot	-14292
▁deadly	-14293
▁exceed	-14294
▁finkel	-14295
▁fraser	-14296
▁garner	-14297
▁grande	-14298
▁handed	-14299
▁hannah	-14300
▁hiking	-14301
▁intact	-14302
▁judith	-14303
▁layout	-14304
▁miguel	-14305
▁minors	-14306
▁oswald	-14307
▁pokmon	-14308
▁regret	-14309
▁sanger	-14310
▁scream	-14311
▁somali	-14312
▁stayed	-14313
▁tackle	-14314
▁unesco	-14315
▁viewer	-14316
▁violin	-14317
▁wagner	-14318
authored	-14319
orthodox	-14320
reviewed	-14321
▁adverse	-14322
▁anatomy	-14323
▁awesome	-14324
▁balkans	-14325
▁battery	-14326
▁bombers	-14327
▁broadly	-14328
▁buffalo	-14329
▁careers	-14330
▁carpent	-14331
▁carroll	-14332
▁colored	-14333
▁colours	-14334
▁cooking	-14335
▁costume	-14336
▁coupled	-14337
▁crimson	-14338
▁declare	-14339
▁desired	-14340
▁endured	-14341
▁extinct	-14342
▁federer	-14343
▁fernand	-14344
▁ferrari	-14345
▁fulfill	-14346
▁koreans	-14347
▁leagues	-14348
▁lengthy	-14349
▁marking	-14350
▁minimal	-14351
▁museums	-14352
▁parking	-14353
▁podcast	-14354
▁prehist	-14355
▁preston	-14356
▁qualify	-14357
▁quartet	-14358
▁quietly	-14359
▁robbery	-14360
▁scenery	-14361
▁seizure	-14362
▁shannon	-14363
▁surname	-14364
▁tibetan	-14365
▁trainer	-14366
▁twelfth	-14367
▁verdict	-14368
continent	-14369
described	-14370
political	-14371
sponsored	-14372
sychology	-14373
▁ahmadine	-14374
▁applying	-14375
▁avoiding	-14376
▁belliger	-14377
▁buchanan	-14378
▁chandler	-14379
▁combines	-14380
▁commence	-14381
▁deterior	-14382
▁disappro	-14383
▁eichmann	-14384
▁expenses	-14385
▁factions	-14386
▁feminine	-14387
▁insights	-14388
▁medicare	-14389
▁mentions	-14390
▁militias	-14391
▁mythical	-14392
▁offshore	-14393
▁parodies	-14394
▁sandwich	-14395
▁sergeant	-14396
▁shocking	-14397
▁sweeping	-14398
▁uncommon	-14399
▁zeppelin	-14400
identified	-14401
originally	-14402
▁accidents	-14403
▁afternoon	-14404
▁ambiguous	-14405
▁anthology	-14406
▁athletics	-14407
▁attorneys	-14408
▁canadians	-14409
▁distorted	-14410
▁favorable	-14411
▁freemason	-14412
▁inconsist	-14413
▁metallica	-14414
▁neighbors	-14415
▁petroleum	-14416
▁possesses	-14417
▁preaching	-14418
▁primitive	-14419
▁psychothe	-14420
▁publishes	-14421
▁sacrament	-14422
▁submitted	-14423
▁suspicion	-14424
palestinian	-14425
▁altogether	-14426
▁automotive	-14427
▁charitable	-14428
▁comprising	-14429
▁domination	-14430
▁emphasized	-14431
▁encounters	-14432
▁encourages	-14433
▁generating	-14434
▁peacefully	-14435
▁prosecuted	-14436
▁protective	-14437
▁screenplay	-14438
▁australians	-14439
▁battlefield	-14440
▁certificate	-14441
▁credibility	-14442
▁drastically	-14443
▁finkelstein	-14444
▁installment	-14445
▁interchange	-14446
▁retaliation	-14447
▁transmitted	-14448
▁unconscious	-14449
▁accompanying	-14450
▁concentrated	-14451
▁demonstrates	-14452
▁indianapolis	-14453
▁transcendental	-14454
▁transliterated	-14455
wy	-14456
yo	-14457
cos	-14458
etz	-14459
las	-14460
▁ov	-14461
▁vl	-14462
airy	-14463
alyp	-14464
hend	-14465
jack	-14466
▁fcc	-14467
▁jed	-14468
▁sap	-14469
▁teh	-14470
acter	-14471
aping	-14472
belie	-14473
ician	-14474
ilian	-14475
influ	-14476
offic	-14477
ogene	-14478
▁coin	-14479
▁disg	-14480
▁fres	-14481
▁gast	-14482
▁incl	-14483
▁lope	-14484
▁mush	-14485
▁nerv	-14486
▁null	-14487
▁pert	-14488
▁seas	-14489
▁slim	-14490
▁yuan	-14491
econom	-14492
ensity	-14493
kowski	-14494
lights	-14495
soviet	-14496
▁1962,	-14497
▁antib	-14498
▁assyr	-14499
▁crews	-14500
▁cripp	-14501
▁demon	-14502
▁dread	-14503
▁firms	-14504
▁gangs	-14505
▁gorge	-14506
▁incap	-14507
▁lucky	-14508
▁relay	-14509
▁rocky	-14510
▁smash	-14511
▁spray	-14512
▁unlaw	-14513
liberal	-14514
manship	-14515
million	-14516
rington	-14517
starred	-14518
▁accent	-14519
▁astrol	-14520
▁coward	-14521
▁crowds	-14522
▁elders	-14523
▁embryo	-14524
▁harder	-14525
▁labels	-14526
▁lethal	-14527
▁luxemb	-14528
▁monkey	-14529
▁parach	-14530
▁pistol	-14531
▁tongue	-14532
▁traits	-14533
▁unconv	-14534
▁wicked	-14535
▁algeria	-14536
▁arrests	-14537
▁blessed	-14538
▁dressed	-14539
▁embrace	-14540
▁enabled	-14541
▁episcop	-14542
▁exhibit	-14543
▁flemish	-14544
▁imagery	-14545
▁mocking	-14546
▁pilgrim	-14547
▁powered	-14548
▁repatri	-14549
ocumented	-14550
▁balanced	-14551
▁damaging	-14552
▁damascus	-14553
▁failures	-14554
▁illusion	-14555
▁incompet	-14556
▁jamaican	-14557
▁judgment	-14558
▁misinter	-14559
▁mystical	-14560
▁ordained	-14561
▁oriental	-14562
▁parodied	-14563
▁pursuing	-14564
▁reformer	-14565
▁umbrella	-14566
▁whatever	-14567
▁admission	-14568
▁caucasian	-14569
▁commenced	-14570
▁displaced	-14571
▁forbidden	-14572
▁jordanian	-14573
▁judgement	-14574
▁negotiate	-14575
▁parallels	-14576
▁populated	-14577
▁rendition	-14578
▁socialite	-14579
▁assertions	-14580
▁attracting	-14581
▁frustrated	-14582
▁incredibly	-14583
▁instructor	-14584
▁resembling	-14585
▁responding	-14586
▁speculated	-14587
▁subculture	-14588
▁supportive	-14589
▁comparisons	-14590
▁methodology	-14591
▁participant	-14592
▁proceedings	-14593
▁psychedelic	-14594
▁revisionist	-14595
▁sustainable	-14596
▁theoretical	-14597
▁arrangements	-14598
▁neighbouring	-14599
▁observations	-14600
▁collaborators	-14601
▁functionality	-14602
▁intentionally	-14603
▁traditionalist	-14604
05	-14605
34	-14606
67	-14607
71	-14608
aj	-14609
fc	-14610
-17	-14611
anc	-14612
apo	-14613
dep	-14614
gee	-14615
gem	-14616
hon	-14617
lay	-14618
lou	-14619
nia	-14620
oga	-14621
raz	-14622
sax	-14623
ups	-14624
var	-14625
wid	-14626
▁$8	-14627
▁''	-14628
▁59	-14629
▁72	-14630
▁77	-14631
▁92	-14632
▁95	-14633
▁mn	-14634
▁rs	-14635
▁rw	-14636
▁vh	-14637
adic	-14638
alon	-14639
anas	-14640
anto	-14641
bank	-14642
bard	-14643
bass	-14644
bran	-14645
camp	-14646
circ	-14647
ende	-14648
enes	-14649
enko	-14650
eppe	-14651
etsk	-14652
fred	-14653
glob	-14654
gold	-14655
hinx	-14656
imer	-14657
inty	-14658
ipel	-14659
lies	-14660
many	-14661
oise	-14662
qual	-14663
rape	-14664
▁1.5	-14665
▁10-	-14666
▁11.	-14667
▁40%	-14668
▁9/1	-14669
▁aik	-14670
▁dud	-14671
▁gad	-14672
▁haj	-14673
▁idi	-14674
▁ink	-14675
▁mih	-14676
▁nak	-14677
▁phd	-14678
▁seb	-14679
▁sib	-14680
▁tet	-14681
▁ufc	-14682
▁vag	-14683
▁wwf	-14684
▁yas	-14685
acles	-14686
alous	-14687
annie	-14688
aredi	-14689
geons	-14690
ietzs	-14691
ingle	-14692
itars	-14693
itary	-14694
ithic	-14695
ivals	-14696
ochem	-14697
ocols	-14698
onial	-14699
ophon	-14700
ovych	-14701
ploys	-14702
rahim	-14703
roman	-14704
roots	-14705
sburg	-14706
stown	-14707
udity	-14708
▁1830	-14709
▁1857	-14710
▁1902	-14711
▁1906	-14712
▁amir	-14713
▁bust	-14714
▁busy	-14715
▁carb	-14716
▁chef	-14717
▁cruz	-14718
▁disk	-14719
▁emin	-14720
▁funk	-14721
▁gius	-14722
▁glam	-14723
▁heim	-14724
▁helm	-14725
▁indy	-14726
▁item	-14727
▁jets	-14728
▁lash	-14729
▁lent	-14730
▁load	-14731
▁madd	-14732
▁muam	-14733
▁neon	-14734
▁niel	-14735
▁otto	-14736
▁peps	-14737
▁pine	-14738
▁ruby	-14739
[...]
